[PAD]
[UNK]
[CLS]
[SEP]
[MASK]
!
"
#
$
%
&
'
(
)
*
+
,
-
.
/
0
1
2
3
4
5
6
7
8
9
:
;
<
=
>
?
@
[
\
]
^
_
`
a
b
c
d
e
f
g
h
i
j
k
l
m
n
o
p
q
r
s
t
u
v
w
x
y
z
{
|
}
~
¡
¢
£
¤
¥
¦
§
¨
©
ª
«
¬
®
¯
°
±
²
³
´
µ
¶
·
¸
¹
º
»
¼
½
¾
¿
×
ß
æ
ð
÷
ø
þ
ł
œ
ʺ
ʻ
ˆ
ˇ
˙
˜
α
β
ο
ρ
υ
а
б
в
г
д
е
ж
з
и
к
л
м
н
о
п
р
с
т
у
ф
х
ц
ч
ш
щ
ъ
ы
ь
э
ю
я
є
і
ա
բ
գ
ե
թ
ի
ծ
կ
հ
մ
յ
ն
ո
ս
ր
ւ
օ
և
א
ב
ג
ד
ה
ו
ח
ט
י
ך
כ
ל
ם
מ
ן
נ
ס
ע
פ
ק
ר
ש
ת
ء
ا
ب
ة
ت
ج
ح
خ
د
ذ
ر
ز
س
ش
ص
ض
ط
ع
غ
ف
ق
ك
ل
م
ن
ه
و
ى
ي
ກ
ດ
ທ
ນ
ມ
າ
ა
დ
ი
ლ
მ
ო
ს
უ
ᄀ
ᄁ
ᄂ
ᄃ
ᄅ
ᄆ
ᄇ
ᄈ
ᄉ
ᄊ
ᄋ
ᄌ
ᄍ
ᄎ
ᄏ
ᄐ
ᄑ
ᄒ
ᅡ
ᅢ
ᅣ
ᅥ
ᅦ
ᅧ
ᅨ
ᅩ
ᅪ
ᅬ
ᅭ
ᅮ
ᅱ
ᅳ
ᅴ
ᅵ
ᆨ
ᆫ
ᆯ
ᆷ
ᆼ
ᇁ
‐
‑
–
—
―
‘
’
‚
“
”
„
†
‡
•
…
‰
′
″
‹
›
⁴
⁶
€
₴
₹
™
←
↑
→
↓
↔
−
∞
∟
≤
≥
─
│
┌
└
├
╠
╬
■
▪
►
▼
◊
○
◘
◙
◦
☺
☻
☼
♀
♠
♥
♦
♪
➊
➋
➌
➍
➎
➔
⬭
⻓
⻰
⼤
⼼
⽅
、
。
「
」
い
し
た
て
と
に
の
ひ
ま
み
を
ィ
イ
ウ
カ
ク
サ
シ
セ
テ
ト
ハ
フ
ヘ
ホ
ム
ラ
ル
レ
ン
ー
一
三
上
下
不
与
且
世
业
东
个
中
为
久
之
乌
也
乱
了
争
事
二
于
云
互
交
产
京
亭
亮
人
今
从
仔
他
代
令
以
们
件
份
仿
会
余
作
佢
使
依
信
個
候
值
做
停
備
允
兄
先
光
免
党
入
全
公
共
关
兵
其
具
册
写
军
冬
冰
出
击
函
刀
分
刘
初
删
利
制
前
办
加
务
动
助
劲
勢
勤
包
化
北
区
华
南
博
占
卫
厅
历
厦
去
参
叉
及
发
取
受
只
召
台
史
号
司
同
名
后
吴
吸
吻
告
员
周
和
咨
哈
員
商
單
器
团
国
图
國
在
地
址
坑
坛
域
報
增
壳
处
多
夜
大
天
太
央
奶
好
如
妮
始
委
子
存
学
安
官
实
客
宣
室
害
家
宿
密
寒
察
實
对
小
少
尔
尖
尘
尾
局
展
峰
州
工
已
巴
市
布
常
平
年
并
幹
序
府
度
建
开
异
弄
弟
张
强
当
录
形
彭
後
微
德
心
応
忠
念
态
思
总
恐
息
恶
您
情
意
感
慧
懂
成
我
战
截
戰
打
技
抑
抗
报
抵
拍
招
拡
持
捉
捐
捕
换
据
排
接
控
推
提
援
撃
擊
操
支
攻
放
政
效
教
文
斌
料
新
於
日
早
旭
时
明
星
春
是
显
更
書
最
會
月
有
服
期
木
本
术
机
杀
李
村
東
构
析
枭
某
染
查
柴
样
根
案
桥
梅
楠
楼
標
模
機
次
款
止
正
此
殊
每
民
水
江
汪
河
法
泥
注
泰
洋
津
派
测
浏
浦
浪
海
清
渡
測
港
源
溯
滨
漏
漫
潇
灣
灰
然
照
爱
片
版
牙
特
狼
猪
王
现
球
理
琪
瓦
生
用
田
番
疆
発
登
發
白
的
目
相
省
県
眾
知
码
示
福
秀
秋
种
科
称
程
窓
立
站
第
策
简
算
範
籌
粤
系
組
統
網
總
繫
纪
组
织
终
络
统
缩
网
罗
美
群
翔
者
而
聯
聲
肉
能
脫
至
致
舉
舍
花
苏
英
草
获
菜
菠
萌
蔡
處
虞
虽
行
衣
表
被
補
要
規
覧
觀
规
览
解
記
話
說
調
請
論
警
議
變
计
讯
许
论
访
评
询
该
请
调
谋
資
责
贴
贵
费
资
赢
超
趨
跃
跑
路
踪
轮
载
辉
辯
达
过
运
还
这
进
远
连
通
遍
過
選
邀
邮
郁
部
郭
都
酒
重
针
镇
长
關
闪
问
闵
闸
队
防
限
院
除
隐
难
集
雨
雪
電
面
預
題
顾
风
飞
餘
饮
首
马
验
高
魏
鱼
鲁
鸡
黄
黑
點
黨
鼓
齐
龙
ﬀ
ﬁ
ﬂ
ﬃ
ﬄ
ﺄ
ﺈ
ﺋ
ﺎ
ﺑ
ﺒ
ﺔ
ﺖ
ﺗ
ﺘ
ﺚ
ﺟ
ﺠ
ﺣ
ﺤ
ﺧ
ﺨ
ﺪ
ﺬ
ﺮ
ﺲ
ﺴ
ﺷ
ﺸ
ﺻ
ﺼ
ﺾ
ﻀ
ﻂ
ﻄ
ﻊ
ﻋ
ﻌ
ﻓ
ﻔ
ﻗ
ﻘ
ﻚ
ﻛ
ﻜ
ﻞ
ﻟ
ﻠ
ﻢ
ﻣ
ﻤ
ﻦ
ﻧ
ﻨ
ﻮ
ﻰ
ﻲ
ﻹ
ﻻ
ﻼ
（
）
，
／
：
＿
ｓ
￼
##o
##s
##t
##m
##a
##e
##r
##c
##8
##u
##l
##n
##h
##b
##j
##f
##v
##y
##5
##3
##6
##9
##1
##d
##i
##g
##x
##k
##2
##0
##7
##p
##4
##¹
##ø
##z
##w
##ﬂ
##−
##×
##q
##ر
##ا
##ص
##ن
##ة
##ﻟ
##ﺘ
##ﻘ
##ﺪ
##и
##с
##т
##е
##м
##ы
##ﺈ
##ﻧ
##ﻨ
##ﺎ
##і
##ь
##к
##о
##в
##д
##а
##н
##ل
##م
##س
##ت
##ج
##د
##ﬁ
##ح
##б
##л
##р
##ﻦ
##у
##®
##ف
##ي
##↓
##ᅧ
##ᆼ
##ᄌ
##ᅦ
##€
##™
##ᅩ
##ᄎ
##ᅡ
##ᆨ
##г
##ч
##و
##ж
##ш
##ф
##↑
##♥
##з
##ᅵ
##ᆯ
##ᄇ
##ᆫ
##щ
##п
##ᅢ
##ᄋ
##ц
##²
##¸
##¯
##ᅥ
##ᄀ
##ʺ
##ン
##ホ
##シ
##ウ
##ム
##ᅳ
##ᄅ
##ᆷ
##я
##ﻞ
##ﻊ
##ض
##ᄉ
##ר
##ו
##ן
##ᄐ
##ᄏ
##¦
##¨
##ك
##ب
##خ
##±
##ه
##´
##œ
##˙
##ﬀ
##ᄆ
##ᅮ
##ع
##³
##ذ
##ﺮ
##ﻗ
##ﺤ
##ﻮ
##æ
##ﻤ
##ﺴ
##ー
##テ
##ィ
##ל
##נ
##ق
##ד
##ת
##ю
##ש
##ס
##י
##ק
##ה
##ﬄ
##ᅭ
##ß
##х
##ﬃ
##│
##ﻌ
##ﻜ
##ﻢ
##ª
##½
##˜
##ﻠ
##ﺸ
##ﻣ
##ﺒ
##ﺷ
##°
##ח
##כ
##ա
##ս
##ի
##ն
##ﻋ
##ﻼ
##פ
##ם
##ز
##ᅪ
##ᄃ
##غ
##ˆ
##ﺋ
##υ
##ρ
##ο
##β
##ﻰ
##¬
##ր
##ե
##─
##ﻚ
##¾
##た
##↔
##ش
##ط
##ᄂ
##є
##╠
##☺
##ა
##ი
##დ
##უ
##მ
##ლ
##ო
##ﺄ
##☻
##ﺔ
##ﺠ
##◙
##ᅨ
##ᄍ
##þ
##¤
##מ
##¼
##い
##て
##ᄈ
##ク
##ラ
##÷
##☼
##イ
##ト
##フ
##レ
##セ
##の
##ﺑ
##ｓ
##←
##э
##ﻹ
##ט
##ע
##հ
##ב
##ﻻ
##ﻓ
##ł
##ء
##ﻛ
##º
##►
##ᅱ
##ᅣ
##⻰
##ﺖ
##∟
##µ
##¥
##ﺼ
##ﺬ
##א
##≤
##ᅴ
##ﻲ
##կ
##ﻔ
##ﺗ
##ᇁ
##♪
##ᄒ
##￼
##ル
##ъ
##♠
##ո
##ծ
##ւ
##թ
##յ
##ﺟ
##サ
##ハ
##╬
##⁴
##ð
##©
##າ
##ນ
##ມ
##ດ
##ກ
##ﻀ
##ま
##と
##み
##ﻂ
##ﺧ
##¢
##ى
##ﺾ
##ᄑ
##ᅬ
##ᄊ
##┌
##£
##ﻄ
##ﺨ
##er
th
the
##in
##on
##at
##ed
##es
##or
in
##en
##it
##ar
an
##ec
##al
##ion
to
##ic
##an
##ing
##ro
##il
##is
and
of
##ent
##ac
##et
co
##as
##re
##ers
##ve
##st
##le
##ation
##mp
##ut
##lo
##ect
##ul
us
##ly
re
be
20
##ur
##ack
con
##ab
is
##un
##ig
ex
at
##ot
##ity
201
##us
##ver
##am
on
for
##for
or
##ri
##ad
##ow
that
##ess
st
wh
##ir
##ct
##id
##ain
##el
att
as
pro
##if
##pt
al
##ag
##ter
##ith
##ol
##em
we
this
ser
##ts
##im
##om
with
attack
by
##ate
##ia
un
##ch
ot
cve
##ce
com
##are
##ay
fil
##pp
comp
ad
##rom
en
cont
##ws
##abil
##ment
##ware
##oc
##de
##ist
##ner
##ial
##ary
##se
##ated
##and
mal
it
##nerabil
not
##est
sp
via
##fore
before
ch
##ies
mo
su
vul
##per
##her
de
are
from
##ft
vulnerabil
##ail
##cc
##form
ck
comm
ote
ows
serv
##age
##ort
sy
##ich
##so
sh
res
##ber
##ug
##ave
ca
##ear
##ere
which
##ive
exp
ckers
web
##ors
##ecut
act
file
##ice
##iv
cr
##low
##arg
malware
##ke
used
app
##ork
##ame
sec
tr
##qu
##ss
int
have
sc
##ind
se
dat
po
##ure
was
vulnerability
##own
bit
##all
par
##stem
##io
so
##ign
code
##uld
##ied
system
lo
##ations
##ions
##fer
inter
##ry
##arget
##ite
##rary
target
##lic
##end
net
##du
inform
acc
##sp
ph
##up
has
inc
information
##act
add
##ill
sa
##able
00
##iz
##oun
ne
##ib
data
##ified
##igh
##urity
##ell
##um
bitrary
##ll
le
##ant
##ore
ob
server
##ru
##ows
up
##ip
##work
security
##ious
dis
##ord
user
oper
##ud
##fect
10
##th
##load
these
2012
##ach
##co
wind
##li
em
service
##ical
users
##ile
##ript
##ject
cy
##ugh
rep
af
inst
pl
##ence
do
go
##ass
also
##ress
##ine
2010
other
##ict
ar
gro
##loit
command
thre
##ast
windows
ht
ab
##use
##ust
rec
##ult
exploit
##ities
network
id
imp
man
2011
can
conf
group
det
##ang
##ecute
attacks
##ak
##ap
bas
files
cyber
fun
its
##ey
reg
##irect
tim
ho
##der
##ens
their
over
were
been
##out
##ome
##ction
script
use
##ecified
##ian
##ish
rel
##ub
##net
##min
##ory
str
doc
one
##ue
fol
##ans
ag
could
##ech
they
vect
contro
##ument
dec
using
execut
##ates
unsp
unspecified
xecute
##av
all
##cess
##nown
##ong
##ard
pri
lin
contain
##ual
back
##ved
##ok
11
##icro
##ection
##tain
incl
attacker
##aft
##earch
micro
direct
##ific
vectors
email
##ide
##rypt
ev
if
##od
spec
function
##ase
##os
dif
threat
part
pr
craft
ind
##rough
##tp
crafted
##ition
den
vict
##00
through
he
document
victim
##ie
dom
##gr
will
php
rem
##les
cause
some
fi
##ys
when
address
per
key
te
but
200
fir
##mple
inv
##ould
run
denial
##ents
out
log
may
anal
vers
access
tech
##soft
domain
requ
tw
des
2013
new
differ
##log
based
tool
any
cre
camp
attackers
pat
control
##aign
microsoft
loc
var
campaign
follow
related
ident
dll
time
##our
##int
##ential
techn
prov
##ound
val
##art
inject
report
##rib
org
how
does
##ks
##op
li
##ight
pre
##yp
more
##xt
##icious
allow
comput
ip
ass
##uss
##ace
down
webs
site
mess
##ake
no
def
conn
infect
pay
inf
##ash
host
process
##ml
##lication
different
param
upd
who
##ruct
##uth
set
12
http
op
pub
paramet
poss
qu
num
off
like
malicious
than
config
includ
compon
comprom
compromis
name
exe
install
possib
enc
research
same
##ser
fe
such
##ating
cl
commun
activ
##ices
into
call
first
##pon
following
apt
cor
bu
mult
after
mod
cer
them
internet
two
av
chin
##ross
##one
pass
priv
##urr
hack
organ
there
##ance
##ected
##ces
found
list
would
then
vulnerabilities
targeted
##og
work
##32
russ
typ
servers
##word
adv
configur
encrypt
del
prot
##ff
proper
accoun
##entic
compan
bot
read
admin
gen
sub
systems
download
soft
parameter
##ites
##do
##duct
##dule
mon
respon
##ning
sign
nam
##rat
multip
communic
addition
ext
affect
software
module
organiz
string
prev
our
tro
##pr
fl
operation
##ded
analys
open
##ka
multiple
commands
most
##ally
dev
##known
dro
provid
met
##ically
##nel
again
unknown
only
##vern
##ql
dri
obtain
appear
govern
html
version
0x
component
##ages
get
backdo
##ishing
##ever
number
ac
##ructure
analysis
government
dep
##ful
hand
##mples
content
pers
##ify
##ption
##ob
##ger
link
aka
detail
payload
##ced
##ribut
form
ste
about
##we
manag
##ting
however
##cal
update
cross
curr
2014
gener
##ently
##bo
im
##lement
tools
c2
##ote
##ux
fr
##iew
obser
##uring
##iqu
directory
fin
cons
##velo
properly
computer
##lier
request
troj
develo
password
bet
##ose
##loc
sever
known
while
##ise
##ld
indic
sql
supp
public
##ms
pack
expl
load
mem
samples
wr
##ement
targets
had
coun
##ves
##ater
ory
sim
##und
against
within
send
well
##led
high
uth
remote
##ustom
auth
17
ur
pres
bec
phishing
custom
main
uthentic
backdoor
message
ul
##ange
activity
me
pp
goog
see
##ffer
compromised
##gram
##ular
avail
pe
##itt
scripting
##iss
##ays
fire
ret
##ond
init
chec
rat
during
ent
google
##ially
configuration
la
website
eng
##ues
##ights
##ince
kore
##rast
many
##ns
program
15
fre
##loy
post
develop
intell
gain
regist
mar
ver
##ough
several
uses
crash
##hod
pplication
jav
##ests
13
including
18
trojan
##ou
##cover
##ccess
vari
method
administ
note
pol
##imate
##ileg
observed
dem
##ures
iss
connect
14
16
##ily
##ph
red
cred
infrast
possibly
dropp
exa
##emp
orac
year
success
oracle
privileg
victims
ocal
bro
sour
active
contains
path
##ween
between
xss
said
##ries
##other
infrastructure
url
##let
##ilar
##ick
similar
bin
2015
##ics
attemp
19
am
##orts
overf
leg
byt
##ize
mac
sent
infected
si
ulnerabil
sample
intellig
rans
uk
##read
ransom
stor
vis
china
invest
being
##als
cli
another
operations
rights
interest
both
current
##64
sm
you
russian
##ational
##rain
previous
##ous
count
company
start
##bers
##ade
inte
page
shell
likely
win
##olog
port
ap
min
##ird
intelligence
desc
##ized
##lish
vir
specific
##itive
look
actors
explor
fig
##eld
##oci
cap
##ee
second
what
impact
os
##aff
details
##ky
##ese
inde
example
cert
ms
bl
##enc
##ists
coll
cle
sens
##kit
long
cop
ulnerability
##nal
services
successful
arlier
25
clo
larg
ir
wor
administrat
##ull
trans
disc
implement
overflow
explorer
ma
case
##ible
dist
##10
ker
##ited
discover
value
encrypted
organizations
plug
investig
accounts
mach
war
ant
corru
where
el
##str
##obe
rece
##wn
##pl
beh
apple
##akes
documents
product
real
execution
##tr
domains
each
ukrain
##ire
##15
##oot
##line
adobe
##igin
pow
2016
##ility
24
kernel
origin
ter
esp
common
##con
##ps
able
##ild
state
##ident
##elf
order
##ases
sensitive
associ
credential
decrypt
##ost
ef
ut
##king
team
lib
##ature
##ix
er
object
##vers
buffer
way
##ments
uthenticated
perform
identified
versions
##orth
client
targeting
##ude
delet
##ique
rest
figure
resour
response
legit
char
running
java
word
websites
##sa
view
invol
additional
prof
med
source
rele
networks
certain
corruption
##pass
initial
##ayer
even
emp
soc
end
available
aut
ear
##ators
under
##ause
analy
22
mail
##itical
names
campaigns
##idd
since
##ime
search
##ister
##ually
cs
application
##12
car
##ext
legitimate
##ilit
fam
cent
addresses
refer
privileges
executable
because
patch
bloc
##ox
injection
##ionage
point
sol
technolog
sp2
eas
exploits
head
dr
last
##sh
ins
seen
du
groups
functional
local
enter
##ording
day
design
##ets
contin
support
##erg
##itor
##ability
action
##lows
account
##me
linux
##ended
chinese
21
deco
hard
##urt
brows
ban
enco
bypass
hel
est
30
##res
##lie
upload
##very
indu
type
shar
traff
steal
take
##med
field
free
ww
##atch
dig
pur
indust
person
blog
stat
possible
named
traffic
attach
pot
belie
32
create
##cl
credentials
stage
device
find
27
bre
23
##day
cri
associated
memory
once
www
##bed
computers
describ
bug
registry
##po
partic
certific
##ention
##asp
##cept
russia
milit
conduct
check
exploited
attribut
appears
actor
##ault
##ative
##ror
engine
korea
binary
gu
01
##ero
functionality
reported
##anc
demon
##put
##ateg
plat
three
might
##vel
those
demonstr
third
##iness
large
env
include
affected
##ead
##ving
##ital
emails
should
contact
ransomware
register
office
##eng
espionage
beg
lab
driver
image
north
bus
##cp
section
##ivid
specially
companies
furt
according
later
need
further
##round
military
##iron
es
##isk
communication
world
##name
environ
valid
prob
media
very
07
peop
ed
##lob
copy
devices
2008
##now
researchers
##xx
potential
##gg
##anced
identify
rev
##aw
28
integr
index
platform
individ
br
temp
##rie
prox
##ract
extens
##nam
cis
##ier
created
pa
##ines
business
##11
##ules
receiv
02
hash
called
##ove
class
deli
##idence
management
03
##old
made
##ator
below
least
##ember
##pe
particular
##ten
execute
discovered
individual
own
##fil
compil
##ex
##ark
##ings
lever
hackers
level
trig
reve
##aking
##tern
successfully
text
machine
party
base
##60
online
record
50
sugg
result
clear
provided
rout
##ether
interesting
plugin
fact
your
##oo
##uch
##df
##ately
datab
news
make
##ocus
power
block
lead
chrom
controll
##aph
##sc
products
##roid
connection
detection
flash
kasp
sites
##rict
previously
did
mode
##ersky
years
full
tas
##ons
##ense
##aries
chrome
kaspersky
gre
cisco
##app
##istic
##ency
04
technical
cases
enab
dropper
compromise
33
distribut
enterpr
##ted
still
##28
messages
spear
persist
android
##its
##ocol
variant
present
employ
giv
ukraine
##idential
sym
issue
##point
chang
##urn
embed
just
south
purp
protocol
format
focus
change
ccess
without
few
##usion
##lished
instead
##unch
setting
show
detect
default
bytes
clic
incre
scre
sch
unt
table
dns
##to
##ased
error
##ij
itself
zero
##ax
deploy
designed
06
##par
incident
monitor
import
breach
author
technology
environment
ge
manager
29
gr
saf
demonstrated
##usp
frame
organization
prim
help
##ty
track
encryption
social
know
##illa
sw
##ik
makes
often
##olen
glob
analyz
64
##ution
executed
jul
launch
##14
##ctions
##man
cloud
date
stolen
various
integrity
every
strateg
containing
installed
shows
jun
risk
advanced
build
##ged
obtained
here
exist
enterprise
##ession
sur
packet
##cs
##ering
confidential
iran
maj
restrict
tl
##ge
##af
context
provide
non
##los
soph
##13
browser
root
##duke
major
now
##ders
jo
respons
##zilla
##ences
states
infection
##fus
susp
secure
next
agent
countries
size
api
autom
shown
march
##fox
##ypt
stored
appro
##20
sect
components
##itten
black
45
##ably
poin
##box
##aim
##ety
unique
##ither
contained
evidence
handle
##ling
art
month
offic
firefox
fix
##d5
resol
##ding
conv
communications
##iques
digital
deter
tcp
##miss
strings
byte
##ration
##aging
advers
exper
recent
behind
intern
##lete
proxy
xor
techniques
05
database
##omm
pop
modules
test
44
##utions
stand
##antec
##ward
working
symantec
ib
26
lang
occ
2009
linked
less
000
##iddle
##ra
##ivers
july
signific
header
middle
rsa
##lex
mob
scan
retrie
sp1
##eye
##iants
people
functions
mozilla
player
##ov
operating
##vert
national
##fusc
variants
customers
##code
jan
sn
seem
remain
##iting
2017
described
##ready
##ont
##urs
embedded
##86
listed
stack
quest
##ert
35
##face
##30
arch
claim
##abilities
values
win32
investigation
intr
financ
typically
library
dot
korean
around
asp
capabilities
##ai
##ined
intel
sys
##ergy
air
##ata
links
##lications
included
much
intended
login
mark
significant
certificate
above
trend
##ired
sal
resources
##por
anti
##ider
##uro
##ery
framework
original
threats
rand
obfusc
registered
ibm
##key
##80
fake
##ount
##ength
charac
nor
##16
event
across
deliver
##ively
40
special
estab
attempts
project
encoded
dest
##ek
filen
dy
util
character
##19
share
believe
line
##red
##ink
implementation
either
my
cn
crypt
feb
protect
redirect
virt
delete
lim
fireeye
compiled
family
ple
critical
effect
decoy
firm
##over
private
short
fail
oct
received
##ient
##ony
disk
already
##though
allows
internal
mobile
his
directly
langu
financial
although
pdf
detected
##ler
though
location
includes
authentic
virus
force
defense
administrative
##ah
##17
##acy
given
due
sophistic
##88
info
enabled
##pro
cc
##md
processes
programs
hij
arg
attempt
disclos
confidentiality
##sl
##ued
begin
june
hijack
09
vide
##time
protection
must
##bug
provides
center
please
sk
whether
connections
##25
##hot
hacking
global
past
applications
configured
##ober
four
##ances
stud
means
shared
34
extract
stux
webkit
trad
lat
##27
##osed
quick
impl
written
united
activities
simple
##uc
international
passwords
reveal
stuxnet
const
located
settings
sing
##35
##atures
top
small
collect
task
##34
##att
##graph
##ump
folder
availability
thread
append
displ
##mail
##db
##echan
##hip
cybers
tact
ref
development
##29
methods
virtual
md5
##omet
confir
random
##asc
publicly
polic
mechan
spread
trust
repres
##mm
effor
operators
depend
pos
times
##minal
click
36
equ
dropped
##89
##az
bo
complete
sending
apr
parameters
industry
aug
connected
dynam
exfil
simp
uthentication
structure
reports
2007
##50
installation
##air
##uary
heap
elect
exfiltr
##ivir
2003
antivir
important
element
january
fac
length
official
##87
white
ens
interface
sel
general
##amp
personal
hp
univers
individuals
language
nt
antivirus
##gor
xp
series
##ior
write
##ization
resource
published
febru
far
##la
vulner
specif
earlier
37
suggest
february
##41
##37
##ised
##ives
##arily
opp
##ables
sp3
visit
famil
inside
range
##ograph
##ache
prior
31
conc
feature
depart
##ism
core
##wr
extension
vulnerable
profile
dark
mill
##esh
##ification
involving
permiss
logs
behav
standard
euro
downloaded
return
integer
##view
signed
##hers
##aged
modify
attachment
##gorith
algorith
##ef
requests
maintain
trigger
bel
single
discuss
drive
wide
yet
##24
rc
##set
##ecurity
checks
gh
exc
conflic
##67
unders
creates
country
ability
adversary
political
47
r2
##ock
dd
##90
##hing
leak
shellcode
tur
nove
april
card
keys
october
##row
##quently
##aps
##eign
##rect
##rike
responsible
08
##33
##ison
cp
##rep
prevent
##40
potentially
match
##gers
##minals
developed
instit
diff
whose
appendix
technique
mot
put
et
calls
subject
early
exploitation
tlp
##97
##ults
corpor
pointer
move
europe
ro
low
sl
##ba
members
capt
##ands
policy
electr
##ool
##ls
screens
##annel
strong
##aud
##ute
place
entry
week
engineering
##ather
##acts
display
##cri
released
issues
##atic
space
accept
##te
decod
cir
ios
##ternal
comb
scen
filename
exists
nat
##under
foreign
updates
vend
##ams
##aken
ukrainian
reas
##rid
video
august
mc
december
consist
paper
80
days
modified
tun
xml
separ
repl
hacker
highly
##fs
##ured
along
##vertis
hist
##go
hosted
consider
somet
upon
100
ff
##erc
##ario
analyzed
##000
step
indicators
purpose
base64
takes
##18
##itter
##iod
buil
administrators
##ath
spoo
phone
proble
55
##ging
reser
##ume
numbers
46
zone
spy
##coded
involved
prop
instance
##apt
##alt
##anda
indicates
argument
sequ
vol
department
conflict
##cent
sept
##side
##ae
botnet
##book
##ored
##aces
among
##99
##kt
mit
##ements
flaw
currently
screenshot
##ames
##23
sophisticated
algorithm
har
##oid
##ination
rather
hardcoded
##bird
thunder
##44
channel
period
ssl
exch
hosting
external
bank
spoof
cal
home
##rob
recently
da
option
session
others
export
thunderbird
scenario
aud
tib
##26
##idents
pract
##medi
##rust
##ascript
changes
let
mention
##ep
##98
events
crime
authentication
results
##ference
accessed
underst
twitter
face
rt
spe
director
identif
excel
javascript
tel
##data
##ision
cmd
gold
##ystem
##way
try
sv
solutions
latest
specifically
machines
popular
university
65
##ned
##erous
##icult
star
operate
easier
leveraging
convince
kee
lot
making
incor
loader
sends
continue
water
##ness
unit
sector
gather
##wall
release
38
chain
hook
difficult
understand
py
says
##65
##kes
never
impro
fraud
https
##ank
runs
##reports
fal
##bc
input
quests
##coin
##ype
september
##ees
##bit
##22
persistence
strategic
ensure
mag
##hell
##file
contents
##ants
specified
interact
cybercri
loaded
actions
pal
##less
added
arr
output
activex
powers
taken
syri
assist
triggers
hot
cook
recon
india
until
econ
##bs
##itch
miss
generated
law
mas
##uke
compar
region
privilege
60
dam
##95
compress
csct
##fare
artic
##back
##pn
inqu
##aced
intelreports
tactics
simply
fut
hor
##org
tran
##idden
cybersecurity
pages
hosts
##mine
##used
alm
types
cond
window
runtime
carb
duqu
pan
##omp
43
2018
avoid
families
hum
overl
##rusted
##96
##emb
getting
probably
represent
energy
warfare
tibet
don
old
##ral
store
started
descript
decrypted
##na
##ds
untrusted
cves
debug
hav
hidden
pi
##tion
##77
require
utc
community
best
usually
bitcoin
future
##85
##ibility
detailed
months
econom
immedi
looking
controller
primary
##here
evol
locations
advis
revealed
phys
diss
drag
comment
primarily
##45
forum
noted
null
##be
tele
limited
cit
##pc
reader
ve
##inc
##iger
produ
appar
features
monitoring
belong
##ari
signature
##acters
left
indicate
suggests
sun
##ones
beac
outside
firewall
macro
characters
persistent
##not
researcher
db
##dp
##amm
assess
apt1
advant
ue
##ways
almost
##board
##itted
actually
keep
##my
backdoors
##ta
clust
close
uffer
##alth
query
novem
##rant
##isher
express
million
reserved
november
ec
lack
tot
##respon
self
##umer
##asing
apps
receive
implant
##gu
records
five
##84
opt
summ
apt28
deployed
panda
##pect
mechanism
53
56
csr
##onym
##umption
behavior
##ktop
stre
##formed
relations
binaries
nation
##hs
##emon
##apan
allowed
certificates
determine
intrusion
operational
appeared
norm
##rial
username
minist
additionally
distributed
focused
sand
##des
##ensive
##ecess
##ale
play
screen
tit
wild
##ience
##lear
##afee
japan
georg
mentioned
dword
tag
##alid
advertis
payment
plugins
permissions
human
litt
##ista
entities
remo
desktop
deleted
say
tmp
doub
finally
attribution
vm
##wise
scripts
drop
##ipp
##atically
##space
regard
suite
money
approach
malformed
transfer
seems
dynamic
##36
executes
little
crow
##auth
##ium
defend
impacted
ann
employees
oil
vista
conducted
##iet
##47
cho
plan
42
js
##zy
basic
downloader
iranian
##right
##pend
agency
required
correspon
mean
variety
administrator
tradition
starts
48
##esp
mov
print
objects
total
##ody
drivers
##ne
##bi
##arus
weap
indian
tor
exchange
##by
green
rootkit
mcafee
powershell
##look
care
overwr
subm
57
concl
complex
incidents
reference
ddos
daemon
exam
collected
##enger
cover
##estamp
authors
delivered
49
storage
began
reveals
crowd
##55
##els
instant
flag
routine
problem
always
regime
advantage
##encies
der
##list
##21
##oses
motiv
circ
timestamp
vector
packets
di
##ven
trick
pip
sed
##ked
consumption
industrial
concer
happ
##ada
##istics
controlled
hy
col
invalid
independ
recomm
sources
built
##38
health
broad
switch
determin
occurr
nature
##ode
facebook
emerg
workst
##ledge
cnc
72
enough
wi
##bot
actual
requir
explain
copyright
nato
immediately
reach
final
##oft
anonym
##ceed
safari
piec
csrf
right
sit
##strike
reason
jour
##of
spons
52
##61
##wan
39
pars
reporting
messenger
plugx
attachments
ru
##light
seam
citiz
##70
cozy
dump
claims
beacon
crowdstrike
turn
want
shad
former
amount
criminal
article
necess
##page
secr
creating
effort
separate
mitig
mis
today
operator
patched
done
uri
##tun
offer
##ried
presence
become
capability
distribution
retrieved
##ho
going
updated
demand
market
sat
##63
thus
revers
why
percent
variable
41
late
near
ol
filter
##omla
urls
##attack
horse
hide
ics
pc
##td
##nk
##enced
##ift
protected
74
fed
##93
##issance
developers
archive
reconna
alert
uns
##istan
logged
followed
uploaded
confirmed
ach
disru
instruct
handler
transl
##going
ele
##94
adapt
follows
backup
safe
knowledge
reconnaissance
pict
##gi
##75
##war
##itions
therefore
mim
##onkey
enable
controls
payloads
credit
journal
##rel
bear
##igned
good
analyst
esr
description
bound
kill
vpn
##sel
technologies
tempor
surve
traditional
side
cour
cyberattack
##iews
drives
profession
cpu
seamonkey
come
loop
allowing
validate
fewer
joomla
61
stop
##imal
regin
iv
poison
downloads
achie
tai
##energy
alle
rc4
hang
##press
platforms
quickly
press
##02
##ann
property
communicate
frequently
tracking
51
ftp
##ken
sha
##upal
defence
entire
administration
stealing
blackenergy
having
aware
usb
staff
customer
implemented
schem
city
theft
outlook
sock
drupal
majority
establish
dw
ra
##ising
clients
decryption
easily
tibetan
boot
fri
hit
forger
laz
##imately
commonly
sharing
sandbox
taiwan
70
ce
cannot
loading
apache
kind
##get
##ora
took
unc
exposed
##ruction
reading
governments
forgery
##erson
##ulation
compile
##like
executing
prec
##fc
##alf
##works
##rael
east
##gress
##48
node
capable
##selves
lazarus
##sm
infections
quite
verify
changed
tiger
told
regular
offset
disclosed
advisory
##71
unlike
publ
numerous
visual
corporate
8b
aes
##31
##ises
enfor
instances
ministry
sr
ssh
##pri
##imes
managed
existing
cozyduke
pen
##uf
##onic
israel
comes
compat
##sole
issued
experts
taking
phot
beginning
officials
throughout
registration
incorrect
big
##aws
recover
installer
providing
##lock
efforts
select
63
tog
hours
identity
organis
##player
banking
sequence
##ecially
sty
##izes
handling
especially
automatically
together
exact
##oming
uncover
relative
##land
##fe
proced
themselves
provider
launched
##68
##ception
enumer
##liance
desp
statement
increase
firmware
nhs
zip
##ners
##anak
console
opening
particularly
older
ben
ill
##ton
##ree
promp
disab
keylog
acrob
attribute
established
course
acrobat
mut
##nc
##92
##dc
ongoing
package
looks
volume
relationship
##66
ips
president
termin
endpoint
increasing
arbit
recip
points
despite
mys
creation
decoded
ct
cam
wip
##nt
##vc
forward
member
wordpress
status
##bb
acqu
carbanak
requires
body
clr
discovery
cookie
damage
documented
opens
supply
counter
meas
mass
txt
##39
##sequ
retur
collection
distin
sched
recommend
occurred
feder
cms
fall
##74
usage
remove
developer
entity
purposes
palo
condition
hold
##ait
##ground
##ects
leading
great
cluster
gate
jp
##82
##lied
##aris
##otal
strict
obfuscation
history
##oon
##dd
cost
shut
writing
hashes
##54
alloc
game
##03
attention
commerc
situ
gmail
uint
##dk
aff
flaws
initially
escal
obfuscated
58
job
lear
##unt
weak
timer
minid
central
continued
confirm
syrian
dragon
io
##etr
respect
banks
static
disclosure
cgi
ger
##iries
arab
hacked
fixed
aim
##76
##eric
true
supported
eston
##script
mysql
69
lure
asia
##ffic
opened
etc
physical
ful
xxx
##system
pattern
believed
labs
##lib
##ided
she
startup
european
ax
tin
area
agencies
examples
max
practices
##01
##ening
vendor
inquiries
distinct
sets
graph
##wards
retrieve
##ography
discussed
66
##ush
categ
##79
unauth
remov
injected
apt41
effective
compressed
reverse
sil
thous
##ane
scr
##thing
183
restricted
arbitrary
##thon
nov
works
english
six
criminals
telec
double
temporary
bul
hk
mat
##ened
continues
review
tasks
tls
dependent
##airs
institutions
saved
providers
smart
trav
##izing
manip
performed
resolves
win32k
tunes
##ring
ids
suspicious
anonymous
elev
bill
came
vo
##69
legal
stealth
capture
sponsored
led
na
##eb
forens
doesn
drops
trojans
initi
easy
delivery
font
##05
##49
##eline
disable
dukes
peoples
false
magic
normal
##dr
##tered
longer
dere
##orm
deal
##osition
clean
remains
ghost
san
##vant
##ived
whois
posted
worm
question
dissect
bar
##62
##inst
too
enh
hostname
refl
identifier
vmware
live
forces
serious
##spy
##ipher
otherwise
hole
similarities
starting
cybercriminals
59
rend
##04
##0st
##rodu
scale
accessing
encoding
clears
leaked
fully
75
ke
correct
attributed
strategy
peoplesoft
ie
rar
##cement
checking
term
gh0st
role
python
removed
commercial
got
pak
##map
##cat
alto
registrant
portal
terminal
depending
hund
lists
yah
pla
smb
vendors
something
array
transp
hundred
mid
##56
##78
##aster
##lom
widely
stream
ioc
wann
##ulate
excl
better
solaris
findings
alleged
##eness
##reme
edit
title
dereference
give
hong
##83
##br
##72
##idel
processing
steps
fields
illust
brie
tal
##52
##orted
manage
warning
increased
sometimes
apparently
affairs
wannac
lnk
ports
##09
##ides
##iff
miniduke
##he
##fo
##upd
manuf
realplayer
disabled
lay
pn
rely
heav
##conn
headers
consistent
watering
german
manufact
dang
ps
##59
##estern
caus
##ape
encoun
templ
sectors
kong
pdb
##81
##51
inser
army
identifying
overwrite
workstations
secret
##nd
##iation
think
##ino
unus
##pped
moder
eastern
lotus
necessary
returns
lif
##46
##pping
executables
loads
trusted
elements
electronic
assisted
mr
western
##lab
##sequently
identical
calling
polit
redu
dip
interests
##illance
exploiting
guest
leveraged
presented
options
wannacry
gif
##nit
##dll
##ins
webpage
emb
investigations
businesses
deployment
skill
overlap
publisher
pakistan
fa
jre
##vice
attacked
overall
americ
7e
##dom
##iant
##pace
spl
chr
model
patches
blocked
showing
surveillance
##oper
##ming
##iced
coded
unp
hosp
industries
6f
kit
rap
struct
##pth
##ortun
opportun
eb
icon
##fly
##ii
prepar
callback
signatures
ide
piv
##cf
##bu
##val
##57
##ulated
compet
super
logging
##ogn
##boot
calc
directories
analysts
land
##91
##ients
##43
##arks
##utes
parts
intercept
connects
##ology
copies
continu
histor
ltd
##07
neg
copied
appropri
movement
thousands
bund
##aa
expected
##alleng
pred
stores
terms
relevant
resulting
adversaries
circum
style
edu
##haps
##unction
item
challeng
loss
perhaps
virust
civ
gm
ns
rules
##mi
coord
codes
train
listing
police
carry
strictions
travers
tv
##ht
##42
##wave
images
toolset
decode
clearly
virustotal
aj
cat
ow
rad
ways
passed
connecting
didn
resolved
georgia
99
light
##08
conver
generic
generate
interestingly
exfiltration
understanding
advertisements
weapon
disrupt
yahoo
hxx
contract
notes
2006
generally
writes
ult
actively
else
libr
compilation
tax
##han
token
und
sure
privately
consists
larger
shares
needed
##peg
citizen
ey
rang
##lot
blocks
bounds
mutex
libraries
ess
wid
##vious
##53
##ield
##eter
spam
sole
disgu
firms
rats
attempted
transm
destruct
civil
##lu
##pa
typical
overflows
blue
study
opposition
propag
map
##wh
insp
##itect
sto
scam
obvious
recogn
generation
ccount
regarding
aur
fp
gl
ld
##iar
extensions
displayed
rtf
panel
##tunately
fidel
##hn
##ading
introdu
supports
remotely
testing
architect
book
compatible
organisations
nations
##rame
##erpr
##inite
plain
highlight
paths
decomp
attached
automatic
utilized
economic
##bor
##down
##73
##ung
onto
##0000
returned
schedul
ded
men
pid
##ara
##anet
soon
msie
scheme
dub
foot
vi
##ager
partners
newly
##ops
needs
relatively
diplom
##ron
##58
##ints
##ench
unable
subst
##itty
storm
transact
performs
trying
independent
save
##atory
goal
grow
someone
respond
##version
references
##names
snake
pipe
wiper
uncovered
cd
pse
views
##oll
sof
manually
paid
announ
instructions
gateway
bad
fbi
ic
rate
rob
##ilities
multi
break
represents
tunnel
##06
strike
##agr
timeline
spyware
destructive
aurora
sen
##da
##erver
##info
##abor
asc
span
depth
apply
privacy
largest
profil
failure
ttp
##fx
notable
anyone
downloading
browsing
##ancy
school
questions
improper
corresponding
motivated
hear
##zz
##ested
parser
terr
solution
insight
extracted
achieve
flex
hol
mand
sess
##ctl
altern
installs
scanning
constant
considered
half
##a4
##wide
##iter
##itness
##acing
prom
##imum
deep
feed
entries
democ
digit
begins
determined
educ
89
nav
##ties
cob
##user
proceed
signing
msg
originally
involve
carried
extensive
sharepoint
fidelis
500
her
push
tre
##ters
##ao
saw
parties
referred
router
artif
gathering
54
cipher
pitty
ren
sle
ﬁle
##more
##ua
##eless
armed
updating
foundation
extreme
indicating
employed
suspected
cf
dir
ever
layer
sams
##aming
##sphere
pret
pointed
employee
expert
matches
parsing
hundreds
il
oce
zh
reboot
bey
crew
ulnerabilities
sold
arguments
enforcement
nuc
##unic
serve
keyst
setup
factor
studio
professional
ivy
67
ly
##dec
##agent
notice
disput
toolkit
activists
meet
suspect
sophistication
selected
master
enhanced
beyond
grid
ig
repe
ipv
personnel
##fficient
illustr
73
tiv
vps
##text
##eet
##adata
shock
dates
##fully
databases
piece
measures
appropriate
sessions
015
cm
dc
##ric
##ered
##ining
phish
logic
showed
failed
socket
ll
race
##junction
ans
atl
##usions
relies
gets
describe
environments
meaning
sednit
keylogger
##install
bt
bind
tell
serial
##odes
unauthor
embass
ep
##admin
proof
##ifications
uploading
owned
permission
sell
wed
##hold
##inet
##osen
defined
attempting
characteristics
brief
##update
cpp
wave
##eks
exception
##ends
##web
front
secondary
leverage
filenames
effectively
nuclear
none
##ulas
expect
opera
newer
attributes
limit
tradem
tranch
0c
83
tri
##head
##iﬁ
##reg
alph
unr
##chost
expos
##ublic
2004
building
restrictions
audio
estonia
exclus
ajax
shockwave
68
him
mir
##ats
ing
conjunction
##ending
phase
disp
auto
enables
safety
intranet
belonging
unclear
removable
forensic
traversal
solely
dial
fusion
##cr
inn
##ars
##ope
443
turla
nearly
tranchulas
bud
wir
##lm
theme
receives
combination
closely
essential
2e
6c
blob
##au
##ko
cooper
stated
stages
affil
gov
goes
confidence
useful
decided
lines
assigned
metadata
became
interested
utility
mails
position
svchost
submitted
sofacy
90
cache
hi
##fig
cosm
unfor
chosen
##letin
extracting
electric
prompt
escalation
clearsky
transport
unusual
modern
eye
202
ones
stri
##ught
decrypts
sequences
harv
flow
vb
worth
except
sham
seven
system32
imperson
reportedly
##iki
##ographic
keystro
fox
ris
ten
##icated
seg
emiss
hex
surpr
screenshots
japanese
tiny
circumst
##iers
##anted
err
referenced
guid
eset
redirected
picture
fing
fak
wp
things
weeks
nothing
expand
##ube
owners
recorded
hijacking
emissary
gas
hat
soci
applied
2005
handles
visibility
minutes
election
##espionage
rule
benef
batch
cab
##uable
##etch
reload
concept
republic
manner
cyberespionage
installing
communicates
handled
worldwide
breaches
suggesting
strongly
##host
isis
exh
##pper
caused
adding
properties
mostly
clos
teams
lateral
authority
aspx
rapid
extremely
mp
won
##era
reli
##irt
finspy
frequ
##ously
automated
##process
oc
##iom
##where
##ories
suc
##udi
abs
difference
publication
words
bugs
cobalt
ptr
sam
tues
##roy
##unk
reads
forms
powerpoint
completely
visitors
compared
coordin
ultimately
415
box
div
##cle
##ker
shim
apt30
observ
tested
projects
reasons
macros
elevation
##connect
dubbed
##path
##isms
isn
correl
describes
greater
cyberspace
xls
ali
aler
influ
gained
##sapp
guard
exfiltrated
decompress
affili
unfortunately
88
cro
mater
qual
rdp
##eries
unified
##liest
overview
agre
performing
analyzing
claimed
slight
incorpor
improve
forums
journalists
artifacts
6e
bure
##cd
spot
scope
accomp
##umb
doing
differences
offers
##server
helps
labor
furthermore
corporation
##omplete
png
hospital
dedicated
ascii
shamoon
0f
fair
hig
##off
##comm
exit
scar
sov
ago
decl
possibility
french
##lets
seconds
whatsapp
earliest
receiving
implants
construct
exfiltrate
jpg
axiom
##bound
commiss
arbor
proven
minor
deletes
spearph
situation
unauthorized
awar
nj
sms
wa
##asion
##leg
##oli
spok
searches
significantly
interaction
mimic
reduce
ttps
material
awareness
bab
wire
##ood
##rd
##etary
asked
accessible
valuable
droppers
csc
equip
georgian
procedures
blo
sdk
##ster
stay
story
##elist
unic
recording
lock
monday
mechanisms
syria
increasingly
heavily
split
pin
rpc
viet
##aid
##port
##orn
##arter
##any
##isis
union
served
##ief
handsh
lookup
institute
telecomm
training
architecture
tuesday
soviet
ss
xx
##init
##rote
shot
accur
upgr
infecting
compromises
generates
winnt
collabor
gives
analyze
falcon
dangerous
answ
vietnam
bs
nodes
##urage
notification
lost
doz
##aves
backspace
##artext
cleartext
validation
edition
cryptography
recipient
telecommunic
tries
##hai
conference
##olution
##ips
subsequ
investigating
corrupt
##xxxx
pawn
##mission
aero
pw
sink
uae
##star
comments
##ivity
1000
infil
typo
intellect
##shell
believes
collects
equation
dynamics
familiar
cybercrime
apparent
massive
society
subsequent
332
eg
sab
##fisher
orch
coming
syn
intent
configure
indicator
controllers
decoding
replaced
hangover
hxxp
winnti
aerospace
intellectual
79
fancy
lux
que
raw
wall
##cut
complet
contribut
appdata
saudi
logon
infinite
peer
approx
circl
defenders
iocs
commission
tail
vary
##aver
##rc
##cing
##bd
##b7
##bre
isol
finfisher
similarly
viewer
##eshark
novell
evolution
pieces
wireshark
handshake
mist
vbs
##avel
iph
configurations
indeed
largely
randomly
orchest
rare
wrote
yes
areas
hope
purch
speak
carbon
higher
300
##sec
##fa
reset
netw
networking
hardware
contacted
clicking
sophos
thought
builder
inquire
explained
fingerpr
bat
##ran
##ama
websphere
whole
offensive
##rator
##cont
tivoli
spearphishing
equipment
mor
##mark
##care
##yy
##anch
##roup
##api
##service
apis
leads
authorities
summary
timestamps
trademarks
hikit
##ki
tom
##ingly
##ifies
mood
scada
##acted
##ounts
placed
rundll
queries
buy
particip
classified
destroy
combined
channels
recovered
infiltr
sis
2000
chief
deb
background
severe
centre
conducting
clicks
##hotel
template
##agram
ga
tar
##opt
##ma
##inter
asian
asert
##cho
asset
messaging
consult
experience
middleware
darkhotel
satell
photos
federal
dialog
errors
moodle
91
jpeg
tion
really
##ament
paral
arm
keyboard
posts
leverages
kr
king
rub
sony
tc
watch
##itory
##alent
coup
scamm
##loader
repos
door
evade
mainly
engag
192
letter
mandiant
gn
##b5
##di
##disk
##dra
##oned
beij
##omes
ads
##ios
folders
specify
locally
128
leaders
problems
comparison
derived
unlikely
matter
senior
approximately
nc
pm
udp
xt
##rive
noticed
phil
remed
extr
presum
empty
changing
detecting
##center
fraudul
shadows
ghostnet
life
##domain
cur
flo
lic
ng
rol
west
yara
##reh
child
shang
interpr
house
115
thanks
indicated
meant
initialization
joint
propri
ioctl
bulletin
structures
shanghai
eu
pcc
tied
##3c
##3d
##aduke
unw
mosc
bits
plc
ground
eval
compromising
developing
visiting
finding
brute
swf
crypto
fails
derus
sleep
beijing
moscow
om
thing
scams
sea
2002
outage
apt10
worked
communicating
0x5
sender
256
association
browsers
gui
routers
tactic
spoofed
exactly
politically
proprietary
sip
##nes
coinc
##uron
##uge
aren
prefer
occur
shortcut
crimea
mission
risks
babar
kim
overs
tab
##rar
trade
metasp
ack
siem
visible
everything
fixes
millions
regional
germany
bundle
scheduled
0158
fakem
metasploit
away
css
lan
zx
##vm
##xec
##uts
ars
domest
themes
consid
tracked
existence
responses
tags
weapons
uint16
bureau
luxemb
364
##bol
##ented
##loys
##adem
##endar
abuse
111
identification
initialize
classes
protocols
swift
destination
audit
healthcare
israeli
gmt
involvement
95
mm
p2
tain
##oke
##cript
##bus
##fd
##ural
alone
##terns
charg
impress
patterns
dlls
paying
amounts
##ikon
intrusions
procedure
layout
profiles
repeated
rundll32
fast
iex
luc
mind
urob
##lad
##hol
##aily
parse
##licit
sap
troy
0x1
indication
##apped
modifying
movie
hydra
laboratory
aust
rich
##lance
##vent
serves
webc
filesystem
##002
##ourg
quarter
modular
extended
##uros
trusts
maintains
src
naikon
rendering
keystrokes
paralle
luxembourg
uroburos
cas
jsp
ties
ware
##uration
compreh
incomplete
emc
places
certainly
triggered
emergency
encountered
shimrat
njrat
typo3
iter
##tes
##rv
##rec
##ray
##ula
syml
traces
subsystem
presents
168
detections
cloudduke
collecting
speaking
physically
ocx
ran
ug
york
##met
##east
##cu
##ecure
##ream
##loud
asking
basis
relay
locate
supposed
occurs
cookies
production
##paper
atlant
62
cv
dh
night
tue
##arch
##rol
##iling
##isions
##acement
moved
incoming
##antial
plus
offline
0x00
investigated
warrant
board
cyberattacks
alternative
cbc
kn
tens
ini
towards
usa
contacts
disables
canada
naming
packages
##phone
branch
enumerate
recipients
learn
fairly
5a
jar
##rt
##lines
##fl
##add
##oman
chat
crys
seaduke
adds
disco
passive
academ
observe
509
distribute
cryptoc
##ocket
category
growing
gith
ix
##mon
whit
##formation
102
accesses
requested
irc
##shop
blogs
aspects
spreading
practice
choice
citizens
friday
regularly
diplomatic
samsung
incorporated
symlink
github
held
tick
went
yout
##hh
##hel
##itors
consequ
##iding
reco
directed
affects
customized
john
displays
botnets
manufactur
causing
faq
american
disputed
telecommunications
fraudulent
siemens
97
daily
native
##oul
##ene
##rix
mof
poor
prevention
terror
duke
cards
hotel
ceo
ctu
respectively
billion
cosmic
iphone
domestic
crysys
eax
hom
nar
##oor
##9b
##d0
##erce
exerc
##active
iframe
button
defin
##plug
##exp
levels
eventually
threads
allegedly
ranges
democrat
alpha
slightly
wireless
engagement
presumably
cryptocurr
77
slow
squ
##su
align
seed
sound
##action
documentation
subs
subsequently
organized
checked
##apper
strategies
sections
resolution
convention
consistently
##ankba
613
fetch
x86
malvertis
plans
##enses
princ
assets
quot
modification
modifications
smtp
portion
implements
facing
exported
hotels
clusters
##labs
disguised
transactions
cosmicduke
gang
##eg
##fb
##fix
##dl
convers
##comp
docs
anything
assum
encrypts
underground
uploads
statistics
leader
southeast
securelist
remaining
translation
pictures
owner
announced
reliable
influence
netwitness
derusbi
acknow
78
a1
bah
c7
hw
wait
##mo
##lishing
##ny
##200
##url
isl
onion
dead
soap
proxies
resulted
missing
##html
heart
ocean
comprehensive
dup
eight
fu
thurs
ask
deg
assume
assemb
packed
redacted
objective
analyt
stealer
##tool
experi
scanbox
videos
##eshe
##news
cooperation
whitelist
princip
aver
tg
##ea
##com
##post
##util
consequently
##amed
crack
instruction
goals
addressed
payments
programming
methodology
apart
editor
skype
captured
compression
conditions
carefully
reflect
viol
harvest
iexpl
61398
4c
8d
jbo
kar
tried
##oss
##master
##noc
##dis
##ze
##etype
##etta
##stan
##lying
##def
suffer
operates
container
listen
perspect
frag
giving
detects
adaptive
pivy
wednes
ixeshe
thursday
dav
echo
kitten
mak
nb
wik
##c0
##bel
unve
decision
evil
perp
engaged
restart
patching
supporting
symbol
remained
sale
utilities
refers
embassy
tcirt
81
dino
jump
##ca
##flow
##3a
chapt
committ
appended
science
##liances
hop
aggress
searching
factors
enterprises
marked
requirements
commented
shadow
offered
entirely
education
exclusively
egypt
fs
hurr
mong
##hes
##group
##pad
notified
havex
##lient
timing
installations
highest
draw
establishing
simpl
facilit
replace
workstation
exposure
exhib
arsen
recovery
wednesday
6a
76
cell
games
gaming
rot
upp
##mes
##a2
##cb
##base
cold
uninstall
exports
##licate
retail
185
breached
trends
smaller
gathered
novetta
unpack
highlighted
vpsnoc
##iﬁc
ky
pet
tend
##f5
##dav
##roll
attacking
shift
interf
neither
107
inclusion
subdomain
affecting
quicktime
turned
professionals
hydraq
86
bal
lu
mom
sort
sense
tt
##oting
asa
unix
appliances
bitter
##apest
dece
##aving
bots
ready
consum
medical
routines
hooks
assistance
##hole
disruption
relationships
federation
causes
encounter
items
converter
fingerprint
ruby
unveiling
cach
fc
ice
lures
ram
sid
vs
vast
##link
##nx
##zer
appliance
executive
prime
outbound
extra
governmental
##boy
france
variables
estim
##apping
##manager
normally
color
independently
provenance
scammers
zxshell
average
4d
pg
rs
##awn
##fish
##field
##kut
##kov
##zip
##acot
attract
prol
intru
pose
phones
##oked
prc
##ratankba
becomes
##oughly
objectives
restore
edge
powerratankba
officer
archives
skills
##lotus
terracot
btz
budapest
frequency
scarlet
unicode
tailored
cryptocurrency
committee
arsenal
terracotta
sfx
ws
zones
##mar
##come
##edia
exec
asy
##ssl
price
tweet
127
worker
investigate
performance
involves
insecure
507
putin
economics
aimed
introduced
extracts
considering
oceanlotus
98
96
bur
gaz
##lers
##unting
resemb
intention
leaving
cylance
recv
##networks
255
demonstrates
enabling
claiming
topics
produced
formerly
telecom
robot
circumstances
##initial
youtube
400
82
aa
casc
fav
ment
nick
pix
rss
##ui
##atz
##rop
shif
##ssom
prep
offices
##icked
minimum
figures
brand
lower
concerns
opportunity
historical
vbscript
queue
satellite
democratic
chapter
4e
doll
eco
hyp
jr
kits
mss
oop
##lined
##b0
##kb
##wind
##aly
spring
acts
struts
##string
sniff
utilize
darkc
leaks
turkey
evolve
penetr
transmitted
foothold
blossom
orchestrator
philipp
bahrain
degree
c0
nsa
ok
ping
sem
um
##a7
##access
##eth
adopt
##allery
doct
hour
injects
hackt
county
viewing
localservice
bring
resolve
policies
##ammer
street
examined
ign
mofang
onionduke
0e
1h
2d
85
ba
bid
fight
mer
mbr
ua
##lr
##f1
##vr
##enue
##ref
##using
alter
##ians
liber
explan
currentversion
implementations
warned
##config
pointing
label
revious
monitored
##ikatz
launching
##prot
specifies
##ools
prepared
darkcomet
ber
cash
ee
iis
pir
rb
##eal
##has
##orter
touch
stub
explos
webdav
washing
parli
docx
gaining
verification
connectivity
visited
realnetworks
geo
discussion
dragos
pipes
weakness
hkcu
treat
pwc
sabot
unwanted
perspective
hacktiv
2b
divers
ole
rates
xagent
##tom
##main
##den
##del
##worth
##ingu
covert
##ason
tru
travel
##quer
parent
usernames
operated
reply
assign
publish
powerful
responsibility
scanner
equiv
suggested
calendar
identifies
camera
categories
psy
stopped
pseud
digitally
meeting
affiliated
moment
bitterbug
060
dual
huge
##c4
##lies
##xy
forced
chunk
sum
##opol
extent
0xff
imag
focusing
##toss
suspic
summar
transferred
mimikatz
surprising
evalu
jboss
3b
batt
kb
kre
kaz
xen
##hand
##inary
##alk
##icane
##urp
unless
##chang
##uded
cycle
manual
regions
locked
demands
smar
mapping
blocking
brit
linkedin
belongs
submit
ebp
idea
negot
navig
ipv6
guidance
succeed
acknowled
hurricane
50727
parliament
bes
pu
##sing
##mit
##ftp
htran
patients
extort
flame
internally
utilizing
behavio
spoofing
happened
hyper
sha1
uint32
respective
inspection
0a
cult
fax
pac
##mer
##c5
##uan
##fire
##ina
ang
##omb
notify
notably
scans
agents
backend
models
responded
severity
presidential
wincc
profit
autor
guar
##scape
globe
latter
construction
articles
recommends
maximum
plaintext
proceeds
closed
answer
interpret
eth
mich
mix
rise
##ael
##dn
##iate
##icks
interv
dos
0x0
supplied
dropping
msi
##encing
##atched
##scan
automation
retrieves
seemingly
spreadsh
firewalls
##espread
widespread
ldap
menu
expertise
repository
71
8a
band
fat
hon
kh
ov
##rent
##hi
##wood
##ioned
ord
spr
##aveler
informed
saves
defenses
opin
apt29
##door
##ridge
summer
diag
reached
unsigned
islam
ecosystem
washington
3d
rail
##mgr
##9a
possess
communicated
herein
clicked
telnet
complexity
penet
wiping
contractors
cmstar
consumers
sabotage
##worthy
210
fear
hammer
je
ts
trid
##e4
##cre
##bl
##fli
##vis
##ya
##gh
##inum
##arm
##stream
promin
uninitial
ship
reput
##ounds
processor
126
handlers
becoming
blu
revent
braz
removing
json
examine
photo
volex
templates
america
landscape
challenges
undet
ipv4
penetration
uninitialized
aid
bbc
f8
khan
##b1
##pm
##uty
alliance
compr
trace
recurs
imposs
##akh
stront
threatconnect
clip
issu
blank
behalf
initialized
emphas
entered
platinum
geopol
convinc
turk
institution
etum
assessment
expression
regardless
coverage
secrets
coordinated
alerts
quality
atlanta
1h15
impossible
strontium
215
bord
jen
sky
v3
wm
##ck
##vision
tok
##root
##etime
unlock
webmail
101
manso
2001
logo
##logix
moreover
feat
##msg
pair
grab
tracks
facilities
priority
segment
discourage
ticket
hypot
0d
1c
dim
hence
hunt
##noon
##ih
##itar
##ulations
proc
unrel
crisis
##001
patient
defe
obtaining
intelligent
powered
languages
##team
letters
svg
saying
concerning
demanded
learned
manipulate
insert
illeg
##command
upported
volexity
87
gp
nn
wel
##a0
##c6
##b4
##fr
##9e
##pack
##ared
##ley
##ades
noting
##theless
butter
posting
163
msn
carac
focuses
shortly
matching
harm
nevertheless
planning
conclusion
examining
flags
stealthy
dissector
weaponized
##what
observations
homel
autorun
3rd
6d
bang
cut
cia
dell
ko
##ev
##lc
##lights
##d2
##ipt
##gan
oned
filters
##dex
malays
chop
sufficient
pool
sak
relied
feel
bottom
signal
seeking
investment
minim
cleaver
originating
648
equal
interactive
masquer
overlaps
evolved
keeping
choose
correspond
##new
covered
necessarily
mitigate
##hood
achieved
negative
unrest
innov
austral
convincing
butterfly
a2
aw
bb
bait
fault
rv
roughly
tests
tree
##lim
##f8
##pal
##ecting
##berkut
dating
##licated
##ultane
cyberberkut
strength
direction
somewhat
keyword
##login
prem
120
quant
advice
simultane
trojanized
privileged
purported
importance
launches
delivering
protecting
mitm
speed
palest
chopper
happen
arabia
dozens
trident
homeland
mil
mother
##cil
##cmd
##layer
##f2
##fol
##fog
##ike
##information
##ename
##ained
death
serving
netfli
phases
recru
responding
wrong
highlights
pathname
employs
headqu
laterally
broader
situations
tinyp
upgrade
##expected
experienced
kazakh
netflix
360
cens
gem
rose
rcs
vice
##a6
##frame
##gest
##worm
##atives
##sters
##ulating
##aml
##ounder
instru
themed
##ogue
##rative
england
looked
##safe
potao
##points
guess
copying
students
maintaining
cpyy
spying
mask
##esperson
switches
maxim
manufacturing
predict
glass
transaction
spokesperson
explosive
84
founder
pad
rational
##f7
##f4
thin
theory
##oring
anom
unexpected
chart
nex
##ibly
##ished
outlined
processed
##location
verified
revision
formats
surround
utilizes
hijacked
allocation
unpatched
transmit
benefit
agreement
suffered
hypothes
unrelated
ah
c1
c4
fit
lua
mt
oly
tables
v2
##e2
##car
##uk
##direct
##zh
##onom
##acc
##ellow
expose
##udes
##odb
125
0xc
consumer
beta
seek
mapped
decrypting
integrated
geographic
effects
algorithms
missile
##ipped
precise
acquired
arabic
illustrates
bm
bp
cast
sie
vp
wmi
©all
##aq
##can
##b8
##f6
##dns
##ga
court
bell
conce
unpr
units
caught
score
partner
indict
irs
marker
dynamically
optional
debugging
bitcoins
happens
acquis
allocated
inserted
lynx
essentially
couple
geopolitical
etumbot
mansoor
kazakhstan
olymp
b8
bd
dal
ls
lur
##type
##np
##eck
tops
conﬁ
ase
progress
##agon
crit
poly
##ender
nets
##rupt
keyboy
logical
computing
registers
minimal
statements
proximate
obfuscate
destruction
##256
studies
maintained
defender
##etric
estonian
flexible
pretty
absol
perpet
interfaces
undetected
2nd
gallery
len
pk
pas
##racy
##b6
##wiki
fort
##dev
##berry
scot
wasn
obsc
##iction
arri
age
perl
activated
passes
engage
redict
minister
transition
releases
##class
engineer
demonstrate
myan
redirection
constit
facts
##viewer
belg
sunshop
advertising
doubt
filtering
bootkit
shutdown
hklm
chrw
##a4d
isolated
license
p2p
##metry
philippines
equivalent
clipboard
3a
dt
lond
matt
##rl
##cast
##dat
##imp
##icon
##stat
##izon
htm
cyberkov
desired
workar
analysed
0x4
hands
council
lapt
freed
closer
investigators
deleting
grant
scanned
norms
shortened
putter
captures
sv1
emerged
continuing
##craft
malvertising
analytics
dollars
battle
motherboard
absolute
london
2q
d2
dhs
f7
ncl
pap
rated
tiff
##rst
##f9
##amer
sp4
chance
mount
sust
applet
afg
##aks
##ansalt
##rought
perman
identities
apts
protests
signs
programm
##127
begun
##proc
combat
exchang
waterbug
ministries
enforce
voice
psexec
oceansalt
gauss
ngos
assumed
sniffing
behaviour
myanmar
132
92
afor
bi
bir
f2
hunting
nine
qq
##e5
##rs
##lp
##fers
##roj
##ask
##igence
adj
##mented
spaces
##berg
##ension
installers
listening
administer
meta
stegan
##files
occasion
positive
preventing
harder
colle
parses
mitigation
compatibility
##locker
measure
kept
heavy
dispatch
purchase
consequences
icefog
guarant
topsec
bae
mere
pv
##bt
##f0
##d4
##iang
##kel
##etic
##stick
usual
##uri
##iment
crm
##quest
sought
##izer
neut
114
outlets
##arters
broken
revolution
disclosures
topic
concent
fraudsters
##png
telemetry
explains
killdisk
survey
organisation
removal
silver
challenge
ranging
pushed
sinkhole
completed
dhcp
spreadsheet
siebel
bc
brought
c3
c6
cand
gam
iot
nso
pam
ui
uac
vine
vital
##oy
##oint
##lands
##d8
##onn
##urance
station
aslr
spect
symp
explicit
##orship
stra
backed
speciﬁc
delay
toolsets
loaders
##ementioned
##encrypt
elise
medium
presentation
departments
produce
beacons
conclude
concern
determining
forwarded
layers
embassies
rapidly
sinkhol
mistakes
remediation
##address
quotes
assembly
asymm
aforementioned
steganography
0b
032
ds
jack
ks
nort
vba
wider
##mx
##ei
##d1
##esk
##ores
##alloc
##asy
##asus
##mpeg
reuse
mouse
##uploader
sav
funds
decre
indirect
readable
subsc
packer
wrapper
amaz
capital
msvc
distingu
reality
helped
aspect
forcepoint
selection
wanted
mitigates
offering
terminate
wipe
correctly
skilled
carrying
contractor
##while
improperly
democracy
##ladesh
prominent
brazil
bangladesh
nexus
asean
afghan
mz
pure
rig
round
tan
##fi
##d6
##iable
##xml
##aser
##adec
commerce
##soon
abused
assert
linking
indications
##icking
shells
winlog
lookout
whereas
##place
engineered
boy
##eshell
ffmpeg
immediate
motivation
friend
radio
waits
flood
0x5a4d
impression
subsection
estimated
cascading
chopstick
surrounding
lz
s7
ze
##a1
##b3
##b9
##bear
##3chang
##dm
2019
##uses
##agh
##emical
moving
neuron
leave
103
manif
province
0x2
150
##101
everyone
whitepaper
universal
##guard
##ipping
careful
translated
publishing
sheets
scrut
ke3chang
opportunistic
stole
spotted
minority
collaboration
morning
academic
prepare
explanation
featured
anomal
5d
7c
fash
gave
zen
##son
##a8
##eets
##nic
##ha
##ban
##ball
##d7
##iper
##aten
##ete
##lose
##ifer
##chron
contrast
##forms
webex
interview
##umes
partial
prevents
openssl
##object
generating
notepad
visio
encour
deliber
compiler
##uching
launcher
aircraft
cryptographic
facility
yeti
haven
economy
pressure
sha256
raise
preced
render
##header
crouching
kings
mig
pul
rocket
witness
##ren
##nost
##hic
##iors
##gb
##xi
##kys
##ст
##erv
##ervice
##ury
##usive
##seoul
sho
caution
scient
nether
##elling
##umn
decade
##oks
clues
apt32
##enticated
monitors
##print
laws
decoder
geograph
snipp
mechanics
darkseoul
arrested
enumerates
unauthenticated
propagation
propaganda
exclusive
pseudo
scrutin
3f
512
hiding
rober
sz
taid
##eper
##body
##foo
##enko
##itation
##itable
orient
moun
applies
plant
##007
monsoon
flamer
acl
currency
imm
fin4
173
seeing
noteworthy
167
viewed
describing
join
secureworks
periodically
hooking
seduploader
recommended
biggest
acquire
manipulation
##buffer
radar
disguise
obviously
##control
tainted
subdomains
suspicion
dalai
birth
taidoor
411
aster
fly
gs
lama
ndis
pull
sans
wish
zox
##rated
##uid
##gl
##edented
##ecedented
##ili
##acements
##igu
atm
enem
moose
fund
relating
technically
corp
sqlite
176
131
variations
2545
district
elder
solid
encode
personas
route
officers
opposed
behaviors
ddns
ether
corporations
meanwhile
concerned
reaching
holds
sanctions
clearskys
relying
zhc
manufacturers
opinion
turkish
unprecedented
conﬁg
asterisk
clearskysec
064
e0
fru
git
ii
vt
v1
wget
ﬁles
ﬁrst
##a3
##e0
##run
##lin
##ble
##v2
##yz
##onet
anth
##rows
##eto
unint
trisis
##inder
nettr
0000
ups
exploitable
relation
##osh
prefix
assad
##pres
img
registr
amb
##filter
##506
room
5500
identifiers
titled
emerging
benign
prompted
dragonfly
plaus
competition
wonder
accurate
hwp
david
caracal
414
94
bod
bbs
hell
roman
sund
tm
ta
xs
##coming
##ule
##nia
##dt
##asar
##rew
##stack
##uters
comfoo
applic
##allin
##dump
1024
##codec
##assemb
110
whenever
define
responds
pps
engines
vert
sourface
##letools
##ological
libav
encourage
rev1
deploying
population
revealing
ecx
corresponds
motivations
reasonable
gotroj
losses
##http
substit
spanish
illustrated
waiting
lucky
aggressive
besides
hammertoss
acquisition
straight
netherlands
alex
ahead
fif
gar
gri
ham
##e3
##bf
##brid
##ер
inbox
##enix
toward
##ulates
be2
##urg
##amous
##aded
##omin
##iving
criter
104
invoke
locky
likel
defensive
apt12
hacks
troub
deputy
similarity
hello
protector
redirects
alongside
representative
journalist
kinds
christ
hospit
constantly
hexadec
accuracy
parallel
cached
michael
tokens
conceal
workarounds
kingslayer
hexadecimal
4b
b2
catch
dnc
ets
f1
sig
zlib
##mode
##cache
##b2
##fusion
##ihood
##ен
coding
reuters
##rif
stem
cha
cruc
windir
placing
perm
anywhere
infects
frames
portable
deletion
endpoints
classic
routing
##ricted
builds
viruses
fourth
decodes
separated
cali
behavioral
hybrid
friends
dissectors
pakistani
historically
hxxps
transportation
spokes
gnu
parallels
exercise
nbsp
malaysia
unrestricted
robert
anthem
likelihood
cul
hill
jud
ned
ngo
waves
yan
©20
##ew
##rill
##dir
##iver
##gear
##pi
##ро
anun
coat
orm
##ow64
staging
commit
crc
incons
##elled
disapp
operand
plcs
impacts
executives
height
123
opc
encrypting
packaged
macos
transmission
disconn
##ooth
originated
teamviewer
releasing
esc
occup
airbus
##345
improved
hotmail
requirement
telephone
db2
##imalware
establishes
forensics
dealing
pivot
substantial
kingdom
coldfusion
british
extortion
reputation
simultaneously
amazon
tanks
anunak
012
bomb
d5
ea
giant
hr
tack
v4
##mb
##bap
##pages
##asa
##omen
chun
chose
##beros
expects
webready
traced
##iously
implications
partially
injecting
downdel
researchcenter
advised
seeks
storing
disclose
kerberos
profic
finds
authenticate
student
weekend
##altonet
scenarios
dissidents
lacks
diagram
demanding
enumeration
forwarding
paloaltonet
recognize
circumstantial
##tools
deception
thinking
ahmed
ethernet
hospitals
califor
downdelph
paloaltonetworks
2f
963
bor
bridge
dj
gpc
nan
nfs
xtun
##ole
##a5
##rum
##core
usr
prove
accident
hasn
##izard
confusion
perce
thank
communities
openview
indicative
poland
mining
antimalware
functionalities
designated
##itories
tactical
posed
checksum
representation
evolving
##bytes
concluded
requiring
##library
initiate
initiated
elsewhere
electricity
guardian
repeatedly
##module
negoti
islamic
onedrive
fashion
nettraveler
inconsist
xtunnel
bg
e8
fool
gec
kl
odd
ppt
pcs
sin
ub
yield
##e7
##c2
##vd
##wor
##acity
isp
##ids
##agle
energ
moves
secur
trump
nete
reporter
plesk
evasion
##grab
timeframe
hostnames
prevalent
meterpr
detailing
generator
highnoon
pe32
1364
visits
winrar
transfers
registering
04506
concaten
standards
turns
periods
planned
broadcast
jobs
undis
samsam
division
harvesting
intruders
gaza
##encrypted
assertion
bodies
meterpreter
212
93
hint
hmi
mart
rop
##men
##e8
##c7
##client
##nl
##kr
##win
##itz
##ald
##ower
stteam
##agany
unre
compl
##andy
tricks
datas
abun
willing
perfect
##rators
mah
originate
underlying
tasking
gray
conven
depends
universities
matched
##beat
ecd
annex
learning
labs™
reflection
continuous
constructed
dozen
tomcat
##help
karagany
pixel
illegal
sakula
asymmetric
sunday
gecko
ae
au
a60
biz
bidd
dust
divid
e4
rank
snow
vent
youn
##oop
##c1
##6a
##xic
##korm
##wart
inher
##ecy
##ecode
usenix
##ches
composed
spies
sudo
servic
##orting
##sour
##ugg
expans
net4
upcoming
prikorm
partition
remember
tex
twice
creator
infamous
activist
passing
marks
polish
freely
2710
probable
peopletools
triggering
printers
torrent
translates
taiwanese
mrx
recognized
holid
impersonate
observation
rarely
roles
supposedly
pupp
headquarters
olympic
merely
sinkholed
elderwood
vertical
etso
prikormka
4f
597
bog
c9
dated
gat
gone
hkey
ku
lights
rce
td
xe
##uff
##hib
##bis
##dog
##za
##inate
be3
congress
isc
isac
whom
##iring
ended
crl
interval
lee
emir
strain
116
##osing
printer
deny
wins
origins
resourced
socially
banner
knowing
##profile
##azine
elections
accepts
natural
considerable
represented
dropbox
examination
##ffici
calculated
binder
proofpoint
selling
mirage
exha
speakers
leadership
quartermaster
facilitate
kyiv
doctr
hacktivist
diverse
censorship
instrument
silverlight
plausible
criteria
california
abunasar
bidding
puppet
gathers
600
bh
dn
fon
sword
##e9
##cm
##cube
##ytes
##100
thor
##atar
##iles
##ford
compare
notor
acting
1012
##thread
##codes
avast
submission
formation
loadlibrary
sensors
##sauron
pointers
locale
estimate
justice
authorization
snap
projectsauron
characterized
putting
overlapping
satter
backups
sshdoor
terminated
camer
aims
samba
crooks
##break
conventional
mongodb
##packet
4127
a4
d8
dent
##cer
##hr
##ping
##etooth
##erst
refus
##riot
##elle
##agger
##email
shop
##berp
trail
interrupt
##spot
confident
##network
speculate
domino
##mplex
invitation
novel
defines
opcode
thereby
##ffers
elf
javafx
ends
insu
engineers
integration
popup
ntlm
rc5
turb
replacement
552
volumes
##bsd
##myadmin
optim
sandworm
conclusions
parsed
percentage
adapter
alleg
terminates
continuously
alternate
promot
exposing
##office
infiltrate
poorly
heartbeat
smartp
indictment
2q15
forcepoint™
manifest
crucial
ormandy
exhaust
gps
ken
lite
mus
math
pent
rh
rus
song
tamp
uid
van
x64
##bar
##386
##dy
##d9
##gen
##kins
##0re
##zone
##enor
##ecr
##iled
isight
exits
##aint
alt
chemical
resil
leban
disinformation
abta
group5
agree
linx
updater
12th
opent
requesting
##ateral
175
1761
mainten
mexic
minute
iraq
realized
socks
undert
drm
insider
authorized
conflicts
crimeware
magazine
playing
annual
satur
landing
icloud
tunneling
alerted
declined
cvss
manufacturer
##2005
iexplore
simplified
adopted
weaknesses
##visor
komplex
perpetrators
obscure
©2015
energetic
doctrine
cameras
417
517
7f
amp
cif
d4
e2
gap
lt
lad
mb
mx
mes
msp
tank
w32
##vi
##py
##pol
##но
##orp
animal
##alog
##rout
atom
stable
stock
stoned
pros
alive
deeper
##ival
##ssh
scal
sep
intermedi
hta
manages
##okes
invent
desk
creative
modifies
delim
delph
signals
appearing
appearance
ms10
clever
##track
insights
factory
surv
##2014
##etya
##missions
xored
snmp
seemed
sales
refund
ensuring
ensures
motives
subjectalt
unsu
instructed
allocate
escalate
confirmation
scheduler
announcement
frequent
sophoslabs
richard
conversations
culture
critic
matters
candid
snippet
##world
smartph
maintenance
subjectaltname
3c
432
5c
5f
cad
cup
cart
e5
f5
fle
ich
knew
mel
mime
nate
rfc
v8
wants
##sb
##tk
##fw
##iences
##greg
##pay
##zu
##ﬀer
##arian
##ana
##ingcat
##stone
##ulator
forb
##rier
##rian
unf
saving
##ileaks
aggreg
decisions
logger
defacements
namely
subset
managing
fresh
finance
urg
visitor
carberp
technological
drawn
helper
conducts
editing
formatted
##tood
norman
panic
titles
approaches
unsusp
keylogging
graphical
sanit
##mapi
transpar
talk
coordination
growth
cosmu
declar
materials
bs2005
mistake
liberation
##ealer
treaty
bluetooth
nnm
bellingcat
subscrib
afghanistan
witnessed
insufficient
2a
260
3des
9002
bk
df
gol
gamm
ha
og
tav
wake
##self
##e6
##ront
##call
##bum
##jpeg
##d3
##zbot
thu
##onfig
##itude
##alone
##enty
##entry
##amb
stating
stick
##idesh
unencrypted
complicated
##search
servlet
expired
##iveness
applets
tra
usermode
##liers
aband
112
indones
identiﬁ
webshell
121
coreshell
modus
developments
autoc
actionable
surface
retrieval
financially
authenticated
positions
excell
roaming
slidesh
##bait
replacing
homepage
marketing
styles
##untu
initiative
disruptive
pretending
soldiers
tinyzbot
wikileaks
palestin
maximo
conﬁguration
disappear
stonedrill
537
bmp
cited
f3
km
mh
mur
nu
pick
tip
xaml
##c8
##ni
##bh
##bin
##jack
##vs
##well
##ague
unused
deleg
resume
##aveling
##illery
repurp
groupwise
regain
programdata
amd
apk
capacity
implementing
249
autonom
mailbox
insurance
decoys
browse
pursu
revenue
hashed
controlling
changelog
artillery
monthly
resolving
standalone
protections
skel
consisting
telepres
sedrec
preca
schedule
falling
holding
danger
challenging
disputes
harvested
alias
decompressed
accompany
tensions
##flare
whitelisting
iexpl0re
prolifer
robots
favor
psych
border
defeat
minimize
freedom
guarantee
zoxpng
unintended
operandi
martin
expansion
saturday
delphi
unsuspecting
gamma
sedreco
264
310
aax
bol
fb
fab
nested
qt
tier
ven
wer
xi
ال
##si
##scal
##rpc
##watch
##ан
##aters
204
exceed
##amar
##idl
##idon
##ptr
altered
##ocation
chong
##lla
##cout
afric
tweets
##serv
activation
apt37
advoc
readers
downloaders
troops
0x6
depict
simatic
199
legacy
iron
worms
kernel32
centrif
supporters
revoked
##113
embedding
cloudflare
specialized
tasked
spreads
##871
ntfs
understood
electron
representing
citrix
vehic
ecom
players
defending
beaconing
##wares
graphics
silently
bulk
converted
robust
holes
feeds
telling
alphab
unraveling
correlation
pinch
3322
##brella
children
definitive
umbrella
fighting
truetype
pacific
australia
glassrat
hypothesis
permanent
winlogon
perceived
##ecraft
slideshow
telepresence
800
888
b9
bread
eps
f6
gw
kvm
mol
pic
sg
t27
vig
vlad
wiki
zer
##ng
##hash
##fant
##gin
thumb
##road
##eton
rewr
fortun
##eler
proved
notifications
che
chip
chances
chches
##query
season
systemroot
##aked
basically
117
invoked
##ffff
persian
explore
peace
portions
254
worry
autof
csidl
persona
breaking
guang
edi
employing
blackberry
poses
posing
signedness
##333
overwriting
diﬀer
determines
temporarily
disabling
wiped
politics
width
cfg
triv
expanded
benefits
suck
synchron
preferred
evilgrab
krebs
honey
scott
ncludes
distinguish
fonts
pinchduke
010
2c
5b
cb
dl
gul
hd
rain
sus
wine
xsl
zscal
##mas
##cms
##110
##gate
##ecom
##ecrypt
##rot
fortunately
##forward
orange
##ride
stamp
fill
contr
##ocument
spaw
filepath
seas
canc
##aker
micros
denied
pertain
timely
##inton
apt3
protest
genu
0x8
steals
ultr
searched
centers
bypasses
digits
createprocess
##cls
edx
brands
distributing
existed
blacklist
airline
limits
faced
concurr
differs
membership
keeps
comparing
dissem
raised
recommendation
elevated
##initely
diplomat
ciphertext
mirror
innoc
absence
vietnamese
iteration
narrow
conversation
shifted
jr03
labeled
fatduke
##itaro
adjust
hellsing
emirates
turbine
ichitaro
zscaler
1d
b0
c8
dan
efficient
hire
james
kas
maps
mfc
ny
rising
rogue
tions
wow64
##tle
##rics
##cy
##uh
##fir
##yan
##7b
##qq
##inations
##ional
codec
##lean
revel
reused
reliance
207
cong
##unny
forg
##ado
aside
asks
##image
chm
webpages
neigh
instagram
regs
agend
couldn
allies
##odo
domin
locking
timeout
infost
extend
driven
c2s
observing
consent
entr
180
persons
myst
pasteb
implied
farm
displaying
##444
happening
dumping
returning
reviewing
talos
##build
owa
ultimate
##zzly
impersonating
ranking
warranty
exercises
penetrate
##folder
papers
sustained
grizzly
young
crlf
palestinian
psychological
genuine
pastebin
389
419
a7
b6
balt
fell
ia
oauth
sizes
vault
##oct
##a9
##bund
##f3
##fal
##wd
inline
conversion
forged
adm
spar
secured
bit9
disassemb
htp
remind
invince
varies
defl
activate
buf
listings
workers
publications
enters
russians
apsb
investigative
##password
ending
222
dram
##pool
granted
globally
globals
significance
destover
amongst
practical
descriptions
summit
dwmapi
dissecting
structured
icons
calculate
mutexes
rename
llc
keystroke
expanding
consulting
narrative
makers
egyptian
acknowledged
passp
norton
oriented
divided
##ecycle
indonesia
##bundle
invincea
232
3e
700
aly
blow
hs
pt
pwn
tie
zdi
ﬁn
##eas
##no
##1c
##rea
##idi
proactive
filled
seoul
##lick
##apore
##avail
prison
maybe
assault
avenue
deploys
##obfusc
freetype
188
147
##travel
referer
referring
personally
##engine
esv
stands
trading
implies
singapore
accepted
audience
identifiable
debugger
dumped
shady
schemes
preparation
intercepted
flexcube
naval
epis
##xxxxxxxx
wallet
fragment
welcome
vpns
geographical
straightforward
chunks
holiday
mexico
accompanying
315
ahn
dp
dash
f9
f0
hits
href
lies
nit
ox
rip
vfs
wang
##rig
##rich
##i64
##kers
##ра
##orization
##ica
##uns
##unnel
##force
whate
alar
##agues
unload
adware
spool
resides
##keys
los
##uster
perim
patriot
infy
quiet
researchbundle
subnet
##ifying
fin6
carries
purs
esi
imported
authored
restricting
##losed
capturing
television
ecat
removes
traditionally
overwrites
anonymity
mitigations
calculation
bundled
icmp
epic
decompression
accomplish
cscue
corrupted
yester
specifying
##3d4
alternatively
definition
mongol
rails
issuer
jenkins
##directory
hillary
instrumentation
cifs
diﬀerent
infostealer
ahnlab
whatever
314
317
527
cso
d1
fq
gapped
gfi
hm
mk
ohh
p1
roll
sight
swe
t3
za
zw
##oice
##tiger
##mem
##eed
##raw
##cloud
##js
##dri
##dated
##iel
inbound
##env
##ilst
##stand
2048
##abytes
isps
##unc
##adi
##essage
whilst
ash
##chain
compliance
spent
spawn
##soph
sek
systemd
love
abc
threatening
indis
##iev
varied
122
encount
workflow
advance
advtravel
admins
preview
troll
##tings
fin7
finland
suppliers
146
broke
wininet
medi
careto
bypassing
statically
extensively
restriction
375
road
replies
rtb
chains
cybercriminal
assessing
column
stops
uncovering
costs
confirming
distinctive
reviewed
##drug
opportunities
cataly
cdn
##regist
surprise
ownership
equationdrug
commissioner
varying
repositories
ugzilla
unpacked
petro
prolific
acknowledg
diagnost
laptops
frustr
registrations
unsuccess
electronics
yesterday
ohhdl
encounters
1a
520
614
835
ble
cuc
h4
jd
nv
poc
rd
rdata
tide
wal
wicked
waters
##uit
##bg
##bing
##yn
##you
##1b
##kin
##ск
##ona
##atile
inception
##icts
##anov
##request
##struct
req
convert
orcar
##eled
as4
unsafe
ade
malwares
chen
shelf
netgear
##antly
##ipedia
abroad
##ango
##anger
relate
backst
heur
defacement
multim
generations
retain
realm
ers
profess
certainty
##shot
accordingly
newspaper
scanners
specialists
redirecting
constrain
virtualization
exfiltrating
oldest
played
raqq
recommendations
matrix
pivoting
predomin
educational
essentials
correlate
splitting
falcons
purchased
krb5
principal
##defender
intruder
poseidon
##protect
truecrypt
navigation
masquerading
padding
lsass
fortinet
occasionally
jackal
anomalous
luckycat
fifth
neteagle
ranked
allegations
declaration
skeleton
trivial
htprat
alyac
##available
orcarat
5e
ell
f4
fellow
jiang
kor
lets
ty
##mal
##c3
##ham
##blog
##from
##div
##iq
##iated
##2a
##ertain
##icip
reject
unnot
spain
committed
##que
##iop
losing
phen
upnp
##coding
##ressed
arms
cyberwar
funding
strugg
##mlin
offs
clar
readily
0x01
handful
uris
peg
verizon
161
##ologies
entertain
crimes
hashing
textbox
surf
securely
402
characteristic
extraction
##crimin
##0001
speech
damages
damball
oldrea
telegram
occurring
schema
##priv
competitors
catalog
navy
pittytiger
atlas
dispos
autoit
debian
coupled
groundbait
oversight
duplicate
listener
wikipedia
tti
nickname
geolocation
smarts
succeeds
keywords
colleagues
ksn
enemy
applicable
##source
mrxcls
mystery
nitro
unnoticed
0day
4a
5000
a5
boun
e1
ew
ih
iec
ike
ming
porn
ron
rent
rast
sist
uy
wil
wada
на
##aware
##lec
##yang
##water
##erial
thwart
##ati
inet
##isign
coe
cog
##asts
##store
react
ath
prohib
unident
filed
enfal
deem
acted
appoint
accused
phr
obama
strange
decimal
speculation
invis
outdated
webserver
defences
paypal
aviation
botid
subtr
subscript
openstack
0x10
gains
135
amt
250
##123
contacting
##named
schne
markets
antiy
slide
slash
80386
proposed
belonged
printing
covering
happy
misle
lifecycle
rap002
disrupted
footer
##agraph
applying
meetings
agreed
intentions
shadowserver
knows
shifting
kremlin
grayfish
prosecut
bkdr
abandoned
fortune
perimeter
indiscrimin
catalyst
backstage
professor
damballa
rastls
782
az
bav
c5
cub
dorm
fine
gues
kw
living
md
mun
merg
pud
rock
v11
x00
по
##ook
##sk
##tech
##rate
##hat
##how
##burg
##iy
##ien
##gets
##ala
##ulletin
rein
exif
##usec
##ifax
##olic
##chat
##chil
comodo
bitmap
park
netb
lev
20100
abcd
1180
microphone
addressing
desire
creat
provision
caller
buffers
139
181
140
redd
1999
ms11
warn
247
associate
decryptor
utf
underflow
220
referencing
entering
digest
cripp
crims
demonstrating
increases
blackmail
markers
##885
##slash
tradecraft
collective
refres
equifax
priorit
rc2
turning
separately
##robor
##eping
missions
descriptor
tricked
supplying
naid
enhance
widget
inspect
introduction
trip
strikes
closing
fingerprints
participating
ncsc
xtre
overseas
branches
terrorist
comprised
emphasis
purportedly
precisely
spectrum
bogus
opentype
vigil
autofocus
forgot
unsuccessful
raqqah
pegasus
entertainment
guests
080
1b
1st
8f
dum
dagger
gb
gal
hight
hints
kord
kinet
lith
mcc
nx
ou
sic
vnc
##srv
##micro
##jt
##doc
##gm
##xp
##zrl
##inal
##inating
infer
##rog
##uly
usiness
##ria
##owner
std
stone
##mental
ital
shipping
resist
cauc
##ivy
##ssd
scout
paragraph
##actively
##antall
obl
108
arp
##ishan
backslash
prices
deni
##gres
##ysky
##logic
valve
assumption
infos
fee
clone
delivers
organizational
flight
analyses
0x04
formal
wrf
uthorization
registrar
poll
visa
exploration
osx
worst
transcoding
warns
restored
##media
236
editions
3333
purporting
utils
effectiveness
shortening
##25c
hpmyadmin
belarus
discusses
discussing
prevented
electrical
8080
step7
reserves
##bitmap
arrang
602
panels
expressed
transferring
independence
explaining
sockets
dwcommand
thousand
initiates
seriously
competitive
cdt
territory
budget
striking
exceptions
answers
preferences
warranties
##utils
resembles
intentionally
redictable
explicitly
spokesman
dustysky
##routine
fabric
agenda
phenomen
unidentified
schneider
crimson
hightide
lithuan
b1
cable
d0
dil
fd
food
hung
jded
l2
liter
oops
picked
sct
vc
void
wif
xia
yellow
##eer
##rac
##ney
##hc
##brow
##dig
##kg
##west
##ри
##itives
town
##icing
##anium
##isec
andishan
##utor
##loop
usd
##users
##usively
stale
album
##tery
filcout
enrich
deobfusc
commod
expir
webgl
##ivet
securing
bitdefender
##llbot
obj
1025
abuses
manul
docus
directs
newest
dllmain
prelim
maliciously
firstly
corrobor
delta
trochil
0x7
mainland
retal
184
148
collateral
elite
##play
243
2244
carrier
centric
uploader
guide
guys
brantall
0240
newsfor
294
swc
contextual
suspended
##ommon
remainder
airport
airlines
virtualalloc
importantly
motor
audiences
popularity
damaging
donagh
##beit
producing
wildfire
advertisement
switched
pcap
sandboxes
precision
acquiring
reflects
illustration
pnf
partnership
substant
spanning
renamed
renew
trademark
infiltrated
tarh
ncph
auditunnel
symbolic
rotbrow
attractive
##handler
angel
21022
recursive
neutral
negotiations
ubuntu
##fficiently
lebanon
proliferation
weren
africa
kordllbot
jdedwards
preliminary
trochilus
donaghy
425
d3
gin
glib
hal
hua
laser
rm
rer
rating
sd
tort
tight
vill
wan
wired
xref
yu
##option
##e1
##eps
##ci
##9c
##wid
thom
##inv
covers
##lood
209
##urally
##unes
##amav
ons
stations
stability
proactively
albeit
unatt
unavailable
##ppe
moon
##bert
loose
incon
addr
106
doping
##astic
funded
##oking
remark
outcome
versus
##onex
configurable
##wei
supplement
publicized
preser
infrastruct
legis
stories
collisions
worse
anticip
elim
legitim
evening
drug
continually
##itorial
accounted
certification
grad
experiment
trendmicro
confirms
puts
consisted
1009
svn
interactions
arrest
hotfix
horizon
##ammad
assessments
advertisers
submar
##anny
uncommon
camb
falls
greatly
allocates
categor
reflected
briefly
secretary
splunk
ebx
fp3
##000000
territorial
feedback
studios
illustrate
contributed
destroyed
gnome
charge
terrorism
hacktivists
intervals
borders
exchanges
deliberately
shopping
escape
refused
pentagon
inventory
##october
sekur
nvid
sistem
xtremer
kinetic
italian
newsforyou
089
313
420
487
4333
514
696
aol
bf
boo
d9
dut
eaves
gd
hanc
hired
jdk
kil
mia
nop
pil
pag
ras
rst
slo
ske
ux
wise
zend
ﬁnd
##oal
##num
##har
##jo
##jet
##flood
##v6
##yal
##3b
##dong
##gc
##729
##zx
##ин
##ов
thail
##onent
##online
ingress
inactive
##itled
##isf
##isco
##uris
##unter
forcing
stuff
alarm
##emu
##eman
##check
compact
itunes
##esting
chair
shall
residents
bitten
lose
acceler
disks
109
arrive
abusing
agile
containers
##tpro
##00s
perf
##logger
computes
ipod
1229
getproc
entice
152
verifies
variation
redoctober
activem
smith
msk
transform
receipt
era
224
probability
2828
deployments
helpful
swed
standing
infosphere
paste
latv
##wrapper
movements
separat
csrss
overwritten
conclusively
emerge
dumps
marketplace
poisonivy
wipbot
warnings
preparing
circumvent
civilian
viper
breakdown
tells
foxit
divide
bloom
recordings
satellites
xtreme
webcam
atlantic
deadeye
symbols
jr02
mixed
spaceship
zeus
zenworks
substitution
thorough
vladim
refresh
legisl
xtremerat
eavesd
thailand
1f
312
435
424
a3
aix
bzip
curs
clock
eff
faster
gt
gaps
jim
jong
kans
lives
mi
mant
qatar
rom
rum
suse
tp
tiz
vlc
zj
##som
##aults
##nish
##hon
##band
##jing
##6c
##iw
##ervers
##inent
##ality
##alence
##icians
##roc
##roxy
##rem
##uted
##channel
##sex
defect
shape
expensive
sover
sogu
##ryon
##elligence
userid
replication
##ression
##asters
ida
folsom
threatpost
partitions
##ours
##intelligence
definitely
likewise
clin
previews
0xcf
steppe
##weight
178
170
ratank
postal
verisign
currentcontrol
portug
blend
distract
discovering
associates
namespace
duo
freebsd
##ceptible
cloudme
snif
myster
faces
##6747
subjects
pii
expressions
##byte
mitigating
eleven
photograph
##053
dealers
##insula
##value
segments
accomplished
unicom
buyers
infiltration
debate
seeding
evaluate
innovative
australian
0xc3d4
lurk
lurid
laptop
pulled
scrutiny
fundament
##rowser
bbsrat
yandex
##bapos
dataset
lightsout
forbes
chongryon
spooler
patriotic
tidepool
dormant
dummy
phenomenon
infrastructures
kansas
tizen
0xcfd0
ratankbapos
currentcontrolset
397
416
427
965
a8
a€
aux
ball
cmp
cities
d7
duration
ease
etpro
fys
flying
gift
hound
hides
jmx
mso
nile
niger
p3
pscan
rp
sdb
vk
wool
wizard
##mod
##fg
##vas
##wiper
theor
##inid
inad
##ener
##itzer
anim
##acent
##stor
useless
##aba
##une
proﬁ
unprot
##cha
italy
##format
caut
tric
tracing
intense
##upload
disaster
105
1084
overt
overlook
partly
willi
outline
timezone
##open
preference
compute
buc
passivet
openssh
obtains
urged
157
winning
mini
secondly
osce
246
profits
229
cscs
##shape
localhost
217
helix
237
edwards
287
brings
routes
artef
mobil
mobility
salt
ccd
argued
constants
##audio
tibco
csctq
streams
##5500
tricking
sponsor
reversing
translate
boundaries
poisoned
silent
moderate
callbacks
pidgin
breakers
cfm
lync
btc
limitations
mp3
boxes
coincided
charges
maker
exhibited
rsrc
mentions
##window
##ethread
ignored
summarizes
shipshape
correspondence
innovation
palestine
recruit
##zhou
belgium
programmers
encouraged
scientific
trouble
proficy
socks5
nateon
autocomplete
repurposed
0x66747
pertaining
baltic
fqdns
61486
cucm
uygh
invisible
docusign
unattended
vladimir
sovereign
fysbis
unprotected
passivetotal
0x6674725c
519
aws
bull
bios
bunny
cun
cpr
dv
e9
gear
lie
mature
nd
nls
pec
pjpeg
upt
vbr
zd
##tt
##eing
##rg
##uous
##las
##nn
##bx
##fp
##fre
##9d
##ioc
##2d
##part
##pix
##ие
##err
##intern
##orph
##eco
##ionis
##icate
##isation
##state
##utical
isi
isspace
##ifier
wealth
##ched
adam
##pert
##uges
exposes
truly
##allas
pharm
upx
arc
networked
controvers
##ongate
payroll
1271
opsec
encaps
communist
modul
wouldn
0x40
formed
meg
posture
145
190
1990
irongate
##107
elabor
##1271
banload
016
validated
reviews
tracker
strategically
root9b
joined
retrieving
logins
studied
##uck
simpler
leakage
motive
cscti
misc
satisf
bears
terminator
gateways
minidionis
voho
unusually
reduced
historic
glance
architectures
dedu
profiling
digitallin
artifact
zhang
binding
strip
agreements
declared
##rc1
isolate
curious
licens
tainting
charged
aligns
principles
drawing
recvmsg
imagine
hypervisor
interpretation
bandook
khobe
deliberate
mounted
4114
gsd
music
resilience
styleshe
precaution
guangdong
bavcodec
##zrlnk
deniability
294871
huawei
getprocaddress
sniffer
cautious
triconex
cpr9
digitallinx
387
430
515
7d
9b
cid
dm
epo
fo
ft
ka4
kb7
merc
np
nic
pain
rid
scc
tes
tallin
upper
vot
##een
##count
##8c
##len
##hp
##hop
##yc
##1f
##1x
##iest
##xes
##km
##2own
##power
##4b
##´s
thres
inner
##arin
##isoft
reaction
isbu
excess
atms
unnamed
comrat
##ppy
##hern
deals
synt
shen
sean
seized
datagram
##licates
up007
commandheader
abilities
decide
evident
peripher
logistics
analogue
twist
ipc
httpclient
cland
modes
modem
##ogether
0x20
franc
counts
159
154
postgres
marc
##ought
1312
demo
1611
redund
brokers
macron
smile
smoal
portals
ms13
charming
headlines
belief
believing
277
militaries
##xxx
##filename
environmental
analyzer
officially
##ontrol
404
latin
##509
discussions
replaces
telenor
magent
csctz
debug053
assessed
sayad
conclusive
sedkit
hangul
recovering
manipulated
billions
propagate
rapid7
mp4
affiliates
##orney
coincidence
fsb
balance
surprisingly
interviews
##creen
issuing
##itarian
strengthen
dtl
decrease
boyusec
alexand
culpr
##34567
hrms
candidate
goluns
identiﬁed
alphabet
susceptible
entrench
dramatically
pwn2own
bleeping
offsets
##privileg
22445500
4333113
mysterious
inadvert
kb71271
tallinn
threshold
smoaler
golunski
380
428
485
7a
gor
gig
hub
jail
munic
rul
roc
ript
tem
xbitmap
##morph
##aj
##nb
##jdk
##3z
##don
##gs
##pd
##with
##woman
##ат
##ﬃc
inacc
anc
toys
##acom
coden
##asions
##vey
##start
##mpass
##rip
##owall
attorney
asn
##aya
advert
spray
dex
webaccess
appin
bitly
##spect
##upass
##order
userland
##udoor
emdiv
reprodu
abstr
imports
##akers
##ensions
118
1177
evading
##grade
hostage
club
clinton
prevalence
openjdk
stead
##calendar
writable
entitled
programmed
151
marsh
136
182
198
197
1997
msrt
distance
libp
analyse
mailing
##meas
attributing
flashflood
distributors
snort
##keye
destory
cryptowall
appends
365
boost
##401
combinations
teleport
assesses
routinely
establishment
incorrectly
ctf
elevate
##connected
menupass
promoting
illicit
upgraded
collaborative
completion
participants
floating
meantime
consequence
ramfs
pgp
britain
defeating
polymorph
arrived
romania
hamas
undisc
mathem
spawns
deemed
subscription
caucasus
bloomberg
uyghur
postgresql
magento
riptide
inaccur
emdivi
1q
489
467
525
b7
bom
die
dmit
drew
e6
fel
h2
jose
juch
mik
pending
rgb
sx
vae
xb
yang
##oz
##size
##ti
##marks
##cers
##ltr
##ync
##3n
##360
##kk
##2e
##ии
thir
##eda
##editor
##edagh
##orer
##arr
##arious
##etail
extern
##adb
##ida
##ola
unn
uncon
##che
##estine
chech
shed
shel
webview
craw
systematically
interim
##illing
##eller
leaves
dispar
plag
dok
canad
reporters
prey
##aceutical
opm
quedagh
numeric
researching
cerber
communicator
130
1860
methodologies
specification
blamed
discip
legitimately
draft
encompass
estate
235
validity
helping
##mann
uniquely
lessons
##iversary
352
cnn
crypter
protects
##write
ghole
##teen
consideration
##ercase
reserv
compares
anniversary
broadly
boundary
verifying
keyloggers
countermeas
billing
rendered
intercepts
lightweight
highlighting
schools
promote
repeat
himself
impersonation
surprised
mpk
alike
interpreter
##cripts
assuming
peters
resemble
favour
merch
geminid
polyg
##iliary
wonderware
servicem
intermediate
seasalt
##standing
predominantly
vigilant
bzip2
auxiliary
zdnet
pharmaceutical
clandestine
geminiduke
1e
2h
319
900
ak
bow
bast
baid
brian
dws
diction
fw
hu
iw
ico
jpc
jscript
nf
nec
ost
pup
pallas
qemu
ring
rack
rpm
rival
sor
sides
zomb
##tag
##cart
##laim
##hy
##hub
##function
##3f
##gtk
##xc
##2b
##2f
##ал
##inity
##inational
##ato
inability
##iton
##iters
##arts
##ilog
##ette
##ettings
##repor
confer
##ads
##ador
unsoph
##char
contrary
shield
codebase
interception
accord
incent
ems
repro
grown
cansec
override
emailed
teach
invoice
anyconnect
defaced
defining
hostile
sett
124
1234
multinational
downloadable
flip
devast
0x12
0x23
gett
179
186
160
1998
msil
252
disttrack
terminals
lastly
23rd
brad
034
502
##appro
juniper
joan
blackhat
sysintern
virtually
authenticity
##proxy
webkitgtk
virtualbox
equally
boss
##370
##effect
mentioning
6500
arrests
reconstruct
comparable
csctr
##organ
representatives
misconfig
mimicking
raising
bigger
selectively
ipsec
##dden
centralized
dragonok
##draw
cleaning
footprint
proceeded
blobs
correlated
improvements
burea
telecommunication
destroyer
slowly
subsidi
fragments
ttl
gazer
penetrated
##accessible
assignment
suspicions
summarized
##ftpd
skywiper
pairs
redictably
battlefield
sustain
sympos
ambigu
stems
annexation
snapshot
smartphones
tavdig
autonomous
depicted
kasper
pursue
##registers
disposal
athlet
wifi
nvidia
undisclosed
juche
polyglot
baidu
##reporter
cansecwest
sysinternals
316
388
480
434
429
874
912
b4
cts
cip
dor
dong
eap
fn
hlp
jin
jmp
ments
nas
nul
naz
pty
peter
row
rim
sar
trial
uc
с2
##tml
##times
##rete
##c9
##card
##crypt
##ulo
##uerg
##nation
##note
##fae
##vance
##2000
##ет
ineffect
##itting
andrew
##entions
##uliar
beeb
fore
forzrlnk
orders
stager
aligned
##ags
we11
withdraw
uni
unaware
film
##ocking
##estop
moh
sudden
intens
sees
##ionsolution
incred
leap
plenty
gop
str1
microcode
evid
##ieves
remarks
somehow
##ource
valves
quote
exemp
cernet
aviv
##urring
submissions
acr
steam
winmm
capstone
certified
transformation
anton
240
insid
30729
guidel
busy
esx
individually
classification
##isticated
embeds
gramm
contextis
suspects
occasions
snoop
limiting
pdfs
##attribut
lengths
##ampol
##ivesecurity
scene
replay
actionscript
lawy
lawful
avoiding
overlay
advisor
producers
drivers32
misuse
preconfig
fallen
commercially
scramb
bulg
cleanup
##cfg
undocument
decompiled
psexes
promise
promised
cabinet
affiliate
lookups
photoshop
casual
ugin
square
fuel
perpetr
fingerprinting
bringing
ignore
##vr32
evaluation
##handle
##urple
possesses
welivesecurity
quantum
nclude
permits
judg
complain
mahara
snowden
venture
fleet
transparent
vehicle
moler
regsvr32
iaaf
##memory
adequ
sctp
expiration
angeles
legitimacy
cunning
peculiar
syntax
bastionsolution
unsophisticated
symposium
polyglotduke
beebus
forzrlnk3z
we11point
guidelines
undocumented
psexesvc
386
399
395
511
516
9c
ai
a0
b5
born
cto
dcs
eternal
fanny
gom
gare
gie
hier
irel
ja
kav
mg
mation
mike
pion
pus
plot
petya
s3
tf
vx
wu
wtr
xmp
xbap
zet
##ris
##cam
##horn
##vy
##vide
##1e
##gy
##2c
##zeb
##error
##ini
##edit
infor
inaccessible
##arth
##ece
##lout
##lyph
203
##abi
##ab32
##abled
exile
##ela
##oles
fileless
##ocs
##andom
spend
chan
sup
suites
malwarebytes
secu
truth
triton
trampol
008
##izable
cyr
planted
goz
##apers
1132
prince
outages
logout
anymore
patr
locks
locals
injector
downex
downtime
differently
climate
buck
avp
subroutine
responders
multipart
flu
##calc
imap
finished
computername
engaging
koreans
postscript
verb
crashes
143
credited
194
integers
impacting
osint
msxml
sensor
longhorn
##plus
commons
##verst
empire
designs
stealers
##ancing
essex
routed
grand
analyzes
junk
approved
fixing
conventions
##ommerce
syslog
sysget
frameworks
##umph
equals
##crimes
letzeb
missiles
tagged
chooses
printed
circles
colon
emergence
reachable
missp
pci
unsolic
adapted
killed
silence
silverst
bullet
##hev
tv5
essence
introduce
flexibility
treated
reboots
sells
faked
88444
improvement
scarc
pinpoint
ss7
familiarity
speaker
considers
webc2
dhar
hopes
simplistic
summarize
ethiop
12610
gpu
recruiting
unexpectedly
arrives
permanently
0322
decreased
anomalies
pulse
assadcrimes
crc32
inconsistent
exhaustion
delimiter
subscribers
excellent
csos
korplug
netbios
##width
wool3n
dictionary
##appropri
ineffective
molerats
ireland
letzebuerg
unsolicited
086
087
488
612
9e
b3
bon
ci
cum
dx
dol
dib
dhe
fer
fals
hind
lg
lts
nts
sb
son
uuid
v9
wo
xr
##sid
##r1
##ram
##8a
##8f
##nos
##buster
##va
##v1
##wait
##ом
##€™
##onto
inj
##itech
##ici
##asm
##asec
##station
##ulative
reb
reloc
rebuild
##abro
##igen
##addr
stake
##elve
##elines
alw
##aga
##olaris
##atex
unm
##ocon
##ials
notp
chess
chips
serviced
sync
shap
cru
cron
scores
soa
systematic
netstat
samp
emot
doors
recall
regul
##outs
evt
threaten
threatened
heal
remex
somewhere
perception
permit
tek
outbreak
twelve
deserial
locates
downstream
sethc
possibilities
passcode
founded
listens
openid
drip
handed
handing
##weaver
imit
finnish
172
uranium
##covered
1641
ransoms
counted
transit
wars
appleweb
248
restarts
endian
earth
hardening
freegate
attaches
labels
esxi
mediawiki
043
persistency
##topt
joh
approval
populated
##890
472
royal
stronger
reserve
difficulty
##6562
magnit
interacting
advisories
teleph
produces
advantages
dwords
switching
unsure
blackenergy2
cease
sshd
opensolaris
costly
manipulations
talking
##connection
appropriately
inspired
unauthorised
expecting
unrecom
hima
mirai
positioned
decompresses
sabre
wallets
contribute
unwitting
shimratreporter
ugly
##hello
sounds
fetches
fragmented
exhibit
ethnic
bandwidth
recursively
wmic
segmentation
glassfish
belgacom
neutron
spectre
preceded
enemies
disconnect
borrow
django
undiscovered
convenience
altogether
apsb12
h4t
phrase
reddit
lithuania
laserjet
clinical
fundamental
sovereignty
francisco
municip
unnecess
canadian
petersburg
devastating
hierarch
remexi
390
4th
6b
620
7b
aaa
bak
cz
dtopt
fits
gdi
hay
khtml
mad
nfr
pause
rr
ramp
sq
sgh
tty
wong
z0
##tor
##top
##tiff
##message
##aur
##cap
##cert
##8e
##uate
##bone
##jav
##5f
##date
##xe
##0b
##pub
##pos
##zb
##ек
##ор
##ак
##ﬁltr
##inated
##onents
##atr
##atus
##atical
##esis
##artered
##alities
##isbt
##acs
cool
##unte
##oted
##fort
##ripe
##ithread
otrs
complicate
##istical
spir
sports
spoke
spike
moudoor
suitable
resum
##bernet
trunc
scs
bitco
##licating
##spir
##speed
##activ
001
nef
datahub
##ellia
##umman
##loading
##limp
commanddata
threatex
bash
functioning
outlines
desert
tooling
creators
followers
assass
researched
clue
encryptor
accounting
monet
openoffice
metric
metrics
depicts
##obs
##oby
##week
imc
highspeed
##onds
149
165
sourced
##icket
blind
##108
##105
ordered
##ostart
ernet
restaur
autostart
referr
270
238
##aspora
validates
revocation
grumman
fixation
resolutions
specialist
##prof
##prov
skip
trustwave
exfiltrates
##efined
##675
ddr
##oolz
1004
spynet
proport
volunte
auditing
cscts
avoided
opted
choosing
toronto
circulating
diaspora
##tdown
sidewind
srv
peninsula
termination
terminating
camellia
greatest
graphic
keen
goto
talent
talks
unusable
##labeled
ebay
ideology
##buil
negl
disrupting
books
bookmark
holly
holiness
dirapi
noticeable
meaningful
triage
closes
coordinates
aliases
qualified
hospitality
battery
##controll
scammer
lucrative
semi
liberty
diversity
angler
premises
headquartered
##onomy
##classified
constitute
constitutes
gamestop
purely
christmas
spokeswoman
culmin
commitment
texts
kubernet
notorious
meltdown
traits
murcy
spawned
as46562
surfaced
indiscriminate
commodity
thomas
chairman
latvia
mantisbt
photographs
overlooked
recruitment
inadvertently
libpurple
countermeasures
servicemain
preconfigured
pushing
xmpp
silverstripe
notpetya
dripion
applewebkit
magnitude
dtoptoolz
threatexpert
sidewinder
kubernetes
3g
486
495
513
626
7th
8c
award
bio
cath
dun
dss
gil
gkg
halt
jm
jet
jude
kdc
nag
nice
oss
ped
por
pun
qamar
rk
ros
rds
tk
vote
wb
wary
yabro
про
##event
##rm
##rors
##nier
##hony
##hunter
##bee
##bulletin
##fan
##virt
##yu
##5xi
##drive
##gence
##kill
##7a
##pasec
##witch
##q14
##ед
##од
thieves
##input
##oning
##enh
##ication
androm
##eting
##asks
20th
##urpr
island
##unity
##ambus
forth
staged
##irks
##olan
##olved
##eme
##ateur
unity
unse
unlabeled
enbt
suff
synd
shr
cront
crambus
appeal
intptr
##urel
##licity
informational
##ibilities
##ruft
emet
emulation
plays
placement
god
arise
regulations
relig
stretch
agnost
##ongang
directive
##004
locating
apt34
multic
afterwards
afternoon
0x0000
finish
##locks
retool
freel
mario
142
libtiff
relevance
##extension
famous
solar
##ship
218
211
digi
stats
createfile
proxim
paul
showc
gevers
switzer
##after
445
sne
dota
salted
hispasec
boeing
lengthy
whitebear
##report
slserver
combining
naturally
directorate
hooked
improving
##ipper
rootkits
problematic
killing
loops
raises
cele
uncertain
6332
prompting
ctl
cleaned
inserting
faux
supervision
predecess
predefined
weaponry
stopping
deepwater
##holders
cooperative
absent
spotlight
ssdp
shots
accurately
upgrading
isolation
buying
dialogs
remediate
impressions
iterates
cracked
violence
eviltoss
restarted
navigate
ordinary
comprises
cutting
sakurel
bmk
scotty
college
friendly
libavcodec
bgp
concatenated
##krnl
smartphone
urgent
excellence
pursuit
gulf
admitted
alarms
##ielded
appointments
oblig
enrichment
moonlight
disparate
reprogram
joanap
##registerserver
scarcruft
tekide
nefarious
gkg5xi
yabrod
switzerland
396
460
9f
a6
ace
arid
cw
cct
din
dna
eos
fan
fms
gru
hip
ict
jon
jssd
kp
kid
lp
myp
mps
mdb
mism
muh
nik
oem
p8
sas
sich
sorts
tb
til
tian
tiki
v6
v7
vac
vet
vfw
wd
wlc
xn
xfs
xplug
zws
##sky
##security
##test
##eu
##rating
##corp
##8b
##uo
##l6
##lang
##laster
##bage
##vili
##6e
##days
##kart
##7f
##pot
##zw
##wa
##wik
##wui
##walk
##ла
##inel
##atem
inappropri
##enues
toot
##anied
##ros
##enter
##acer
cow
coerc
##abb
##riber
ally
weather
serge
##iao
itds
resident
residing
##keley
appscan
scm
scare
##ownload
netweaver
002
leaking
##anti
##fected
abd
recy
20110
confront
onelogin
speculated
invokes
outgoing
logfile
analog
domaintools
pays
inflic
hostilities
processors
droid
imaging
publically
peers
programme
connector
141
144
redline
reduc
broker
1980
sentinel
investments
smarter
blame
irgc
24th
216
estsoft
302
blogspot
shouldn
imageio
northrop
probing
powerduke
gref
increment
0611
gran
##afe
joongang
##ommand
archived
dots
trendlabs
obfuscating
##mdb
equipped
electrum
1007
##0007
##ktalk
assistant
cscto
cscth
inquir
##amming
advantech
dropbear
plane
##house
safely
safeguard
hitting
camou
counterintelligence
##aneous
travnet
manipulating
nautil
##drv
##brite
ideal
competing
trained
taxonomy
igss
phishers
##installer
accompanied
cscud
consultant
dialogue
arena
##holder
boards
knock
analytical
unpacks
unpacking
tweeted
bids
berkeley
interpreted
spritz
harmful
absolutely
programmable
adjacent
dispatcher
northern
msvci
##bleed
ppsx
sigint
chafer
chaos
occupy
convenient
inherent
ampl
sticky
centrifuge
breadth
breadcr
##fantasy
cheap
winexec
innocent
revelations
neighbor
oxford
heuristic
constraints
smartscreen
provisioning
hungary
ginwui
glibc
hancock
williams
elaborate
licensing
stylesheet
advertised
merchant
bowen
jpcert
flipkart
pioneer
andromeda
muhammad
##lasterror
nautilus
088
0rc
1x
426
567
599
ale
celle
dk
dar
dtd
duty
dga
e14
fem
gad
hbg
ihe
jord
jrat
jax
juris
lit
mu
mnt
mpeg
nok
nart
pst
qih
rw
ror
rud
river
sss
tand
vix
yielded
ﬁl
##ther
##ret
##rames
##length
##norm
##hir
##bro
##biz
##bank
##ja
##vpn
##yuk
##3e
##3bug
##9f
##1a
##dict
##gian
##gold
##4d
##ос
##eral
th3bug
##inf
##atics
##aria
##ecast
##icide
##illic
##reat
##reet
##sth
##mpc
reass
##urf
foref
stress
##idation
prospect
undef
filing
##istically
suicide
reseller
weblogic
traveler
scrat
scsi
sex
bitwise
netcat
hast
##umfant
dismiss
userprofile
10th
afp
plist
dod
recomp
canvas
grouped
regex
regression
##ensys
relays
##netic
allen
119
iframes
##osite
indus
invite
invensys
twenty
##logs
nobody
defens
##serial
clamav
callmanager
corps
modif
avi
subkey
subtle
monero
monik
flv
##wegian
frm
fraction
publicin
writer
customize
peid
peak
ratio
javas
1889
##ouch
polling
ammy
winter
msc
msdn
receiver
##153
initializes
223
drv
digging
##claim
attributable
01ap
indexed
indexing
braries
temper
##281x
presenting
schol
##parser
surtr
noneth
responsibilities
0001
0002
norwegian
characterize
failing
failures
##atti
##dbc
virtualized
millisec
rc1
##185
volunt
volatile
optionally
lacking
flagged
unsurpr
instructs
bootstr
selective
prompts
strictly
smarty
7515
talktalk
##heed
reduces
gmbh
nsis
owns
studying
##whel
introducing
breaks
tunnels
##zzzz
educate
dirty
rebooted
phished
seller
triumfant
promptly
stripped
reliability
lockheed
xxe
hopefully
##continent
moran
participate
watching
coincides
kimsu
oversees
webcore
##hhhh
islands
deadline
cracking
##rolling
estimates
resemblance
cascade
prepended
imagery
cultural
ordinal
##create
##blue
bluenor
recursion
bmw
concentrated
indirectly
migrated
garbage
deputydog
verticals
kuwait
tampered
undertaken
cups
tavis
##jacking
concurrently
neighb
episodes
rollers
diagnostic
stdout
infosec
retaliation
loosely
##emanager
compactlogix
separatists
nigeria
buckeye
##iocontrol
ka4281x
alexander
chechen
shellex
##ulous
acronym
cyrillic
##umphones
unnecessary
hollywood
digiumphones
proximity
cellebrite
hbgary
iheate
jordan
forefront
scratch
nonetheless
unsurprising
kimsuky
bluenoroff
ka4281x3
490
524
9a
9tp
bj
bing
cq
cass
cpl
ctr
d6
dpr
dvr
ede
eph
figh
fcs
glyph
hur
hinder
ik
ji
jak
kcc
kov
les
ntp
rhev
sant
tap
tenc
uber
v5
vor
vbox
wol
wav
w3c
walk
yer
yls
##send
##tek
##element
##eason
##cel
##uve
##lv
##nik
##ji
##fts
##vw
##5a
##5c
##911
##ibert
##0d
##ports
##papers
##ww
##q8
##qing
##inery
##edy
##itage
##itative
##alink
tow
toler
##isons
andre
##acies
##utom
reward
##ura
##unded
##ami
##forum
##rives
##adm
whg
whis
unclassified
##chec
##change
sufficiently
deibert
reside
intim
systeminfo
interference
informa
lex
ob1
##ruex
##uding
1011
1013
1036
##the
eman
replicate
plants
overcome
decline
decades
linear
prin
heist
invasion
outlet
anyway
##intech
ipconfig
defaults
##ashi
processpacket
setuid
activates
##urrent
organised
workings
##fff
readme
readings
monetary
0x22
linker
steven
fron
supplies
wrapped
senders
1744
164
credible
195
##646
exploring
2568
disclaim
##103
elirks
realize
erad
##128
century
##etsk
banned
encodes
301
deviceiocontrol
##poa
edg
revis
yourself
grey
lesser
intrigu
obfuscator
cclean
videolan
positives
specifiers
rc6
institutes
putty
combine
rtu
waterhole
outputs
csctg
donetsk
db80
querying
totally
##respons
nationals
concerted
sponsors
mitigated
reversed
nearby
pictured
ceased
##feed
enumerated
mutter
xxxxxxx
sheer
initiatives
manufactured
inserts
chronic
prepares
convergence
transmits
hearer
cobra
layered
pretend
soldier
exceptionally
mirrors
concepts
alienv
staying
participation
##choice
consultings
curiously
rolling
omitted
luck
hworm
violation
aggressively
sfxrar
intentional
##ropy
doctype
malaysian
masquerade
simultaneous
exchanged
pvz
##imentary
revolutionary
preceding
##yzstan
judging
strains
resilient
laden
scaling
##payload
mh17
pursuing
centrifuges
definitively
contracts
0x800
dissemination
revelation
sparc
dashboard
quietly
mongolia
pudong
renewed
sistemas
pilot
28289
legislation
encapsulated
modulus
excessive
1q15
incredibly
retooling
sichuan
reducing
inquiry
rudimentary
shellexecute
ephem
tencent
ccleaner
alienvault
2s
311
528
950
aum
bought
cess
ccp
esafe
fws
flic
gi
gun
gsm
jn
mq
oh
ppp
qw
rf
tif
till
tcl
tsm
tends
ucl
veter
vcenter
wl
wnc
xl
zap
ук
##mill
##mitt
##rage
##col
##upt
##upp
##hist
##hear
##find
##vin
##vol
##vcs
##ym
##1d
##iating
##7y
##ال
thed
##atom
##itas
tour
##icert
##isc
##eted
coast
cours
##stype
##uto
##uls
##abad
##verted
forecast
##iran
attrib
##agre
##tering
##emen
unserial
complement
notifies
spo
spill
spelling
moz
mounting
shod
##argo
##arge
apprec
applocker
secdev
parents
##ferencing
informing
accum
phar
##actory
##uda
##udio
##achs
##aches
##copy
##liant
cybo
doj
goo
arising
confuse
bases
cybereason
regduke
hops
overwhel
##omega
##ansk
##avo
micro™
addressbook
differed
likes
infl
129
opcodes
feas
clas
activating
delt
multiplier
0x60
0x30
0x02
memor
133
brother
pathnames
countless
##104
elastic
##truth
241
teamspy
libya
2188
takeover
digicert
blogpost
2722
2731
280
2889
blockchain
##appy
3340
symm
existent
enterpriseone
##2011
norway
skipping
posix
##ographical
slang
acceptance
##amsala
xmlhttp
##182
harves
hotspot
csctj
horde
instantly
##bots
reaches
742
goods
poisoning
sandboxing
federated
ps1
secretly
gifas
recognition
scheduling
senate
profiled
deeply
sleeps
toolkits
tenable
ptrace
##kernel
xlsx
constructing
cscuc
100024
contributor
speaks
engagements
coincident
discovers
malvertisers
##company
principle
hoping
interfere
decept
caching
attracted
asyn
nicklock
dollar
philippine
umair
berkut
pirpi
psyops
navigator
sprint
opinions
fears
hammerduke
onedrives
##folio
hypotheses
mtab
concentration
symphony
subscriber
##oshenko
substitute
christian
accidentally
inconsistencies
yields
ecdsa
ecdhe
winsock
thoroughly
msps
criticized
aggregation
sanitization
transparency
ironically
vehicles
xslt
contrad
episode
diagnostics
jiangsu
ihg
eliminate
dutch
sweden
eavesdro
theoret
##ecoder
controversial
abstract
dmitry
xbaps
externally
nflog
accordance
athletes
eternalblue
zetter
##video
downexecute
dharamsala
chessmaster
servicedll
johns
telephony
poroshenko
droidjack
qihoo
undefined
modifiers
##claimed
ikarus
intriguing
ephemeral
fwsm
wncloud
cybozu
onedrivesolution
413
ay
aad
a17
ced
cse
dde
dcc
dld
dream
e3
ek
eat
fant
gir
gand
hf
hq
hfs
hvm
hana
k2
kidd
lsa
mud
mips
nr
nish
nase
pit
rn
r4
rod
raz
rhel
ryan
sized
sbd
tent
tutor
wage
woman
women
xu
ﬁeld
##odule
##squ
##tit
##aef
##rp
##comes
##nop
##hal
##hta
##v3
##v4
##vault
##valid
##yomega
##6b
##dx
##iety
##gallery
##0e
##7e
##pic
##pity
##patch
##4en
##wire
##wasa
##qa
##ка
##ни
##ны
##──
##erate
throw
##index
##atility
##atrix
##orge
annot
##anic
##room
relocation
conspir
iso
exﬁltr
##otes
##rim
##riad
##owork
##ires
##ctrl
##eling
asruex
##iments
unman
comfort
adoption
enlist
spending
chk
explo
cry
##quis
intend
intensive
codepage
intercontinent
saver
##izations
neust
##ibus
##ante
##antine
##ipr
disin
1030
10000
eml
plone
implicit
baseline
indigen
documentum
reminder
invocation
logitech
versatile
anytime
ipad
hostid
possession
multif
thereof
typed
configures
extends
0xf
suppose
publicity
entropy
153
1530
189
1400
1410
##letter
196
invested
smh
apolog
msv
irre
##102
investigator
productivity
realtek
adobeair
associations
eric
endors
autumn
undermine
225
centrum
21st
digoo
blogpal
2732
2720
2719
2735
2718
2723
2721
0199
edited
edward
ciso
##param
##parse
cloudyomega
roots
lesson
cno
##888
ccmdb
skin
##255
344
quickhe
##ucky
bool
booby
concrete
underscore
##331
screensaver
strongpity
accepting
separation
##fs2
propos
harass
representations
intrusiontruth
movable
movzx
broadwin
determination
occurrence
misused
misdat
pca
raas
aeswrapper
selecting
counterpart
##746
shutting
escalated
smarterst
questionable
streaming
exclusion
manageengine
politicians
chris
ideas
catid
taxpay
viable
frontier
impersonated
finger
alerting
contributions
moroc
buyer
omn
webclient
##eneuve
definitions
acknowledge
whitelisted
cellular
retailer
kyrg
telecoms
mer4en
altering
explanations
rbn
covertly
psylo
puzz
intervention
0x0a
reputable
dimension
quantity
maximize
transmitting
constitution
granting
topsec2014
zehir
geographically
garner
escap
occupation
complaint
auction
notoriety
dentity
promoted
promotion
exhaustive
survive
criticism
##services
gwia
honeywell
##first
disassembly
passphr
multimedia
pornography
mislead
misleading
villeneuve
categorized
boolean
activematrix
dealerschoice
artefacts
dmz
epoch
shenyang
pupy
emsisoft
bureaus
evidenced
proportion
crontab
granular
##golden
aumlib
shodan
asynchron
naseer
intercontinental
neustar
blogpalo
quickheal
smarterstats
taxpayers
kyrgyzstan
mer4en7y
398
499
526
9d
999
azer
bil
bis
bdf
cec
ctd
dict
dph
egress
flows
fasc
father
gimp
hx
han
hive
hall
kat
ket
kde
klogger
lar
ling
lited
lars
licking
mj
mms
mdm
od
pace
pony
rif
rdb
sion
sbu
tn
tia
tive
tang
vene
voting
wing
ward
yong
zy
├──
##tage
##tions
##target
##math
##cg
##click
##current
##8d
##uing
##hack
##hard
##browser
##bithread
##ju
##jin
##jun
##font
##yle
##1ad
##gle
##0c
##pout
##414
##zen
##wiz
##↑j
##ern
thehost
##inux
##onen
##onze
##ena
##ende
##aling
##icates
##ani
##isr
##etext
coin
coff
##studio
##lop
##loper
208
2025
##uninstall
##oto
##otor
onwasa
forge
##adin
whm
##ira
##irrel
alger
##ago
##ppings
compro
compound
compart
adium
ity
sphere
shoot
##erex
webadmin
trapped
sco
seize
sevent
phony
0097
nepal
##ibl
##ruc
1033
arpa
gross
##astro
abb
##apd
##apse
regimes
timers
##oute
prize
backing
##oken
functionally
victor
victimized
butt
invited
outlier
outcomes
##entially
##ribe
computed
asser
assurance
1200
quer
clash
corr
aftermath
avg
##urred
hacktool
typos
configuring
protot
subversion
flor
analysing
0x08
getfile
numbered
persu
managers
crosswalk
consc
consol
171
1723
1768
1756
urge
backdoored
laos
169
16th
##ickcount
amateur
smn
##eee
##eek
ms15
irp
iris
discred
mappings
##106
ern
csv
##121
##120
cars
213
214
hardly
statistical
2725
2734
checkout
##cpy
##away
285
289
brack
brun
bronze
extensible
##exts
clearing
blockbuster
grew
3337
formatting
grants
swap
convin
deterr
internation
pop3
##86f1
destabil
destined
characterizes
mybb
tasklist
randomization
##aziz
augmented
rc7
undersc
slides
sometime
##athan
rtlo
lots
609
csctf
tibetans
advising
##bean
producer
apparatus
sunbel
regards
corresponded
movies
deriv
circuit
colors
columb
broadband
fedora
loopback
poisonplug
dwell
fallback
uintl6
nova
doublefantasy
matth
guestbook
competitor
itemid
traverse
tvs
fp1
badnews
proceedings
renames
pretends
dispute
serialized
briefing
##register
segreg
##processor
coordinate
4155
cscug
ssid
completeness
mistaken
netwire
destroying
rolled
derusbithread
tabs
0x1000
casper
plusdll
tension
tickets
squid
alignment
malvertiser
quoted
burst
##windows
pirate
spreadsheets
premier
predicted
belgian
msvcrt
brazilian
lzma
##links
tacks
proficient
bhatti
vanilla
mesg
candidates
cadelle
winexe
innocuous
##firmed
conglom
dominated
vpnsoc
##rawpacket
##driver
acknowledgement
frustrate
waterspout
multimotor
textbox1
prohibited
поп
leviev
substantially
submarine
portugal
duoj
##storage
##chedul
mercen
peripheral
culprit
##ripbot
felt
zombie
ambiguous
suddenly
unseen
inappropriate
vixen
hastati
milliseconds
укра
feasible
classtype
symmetric
puzzle
passphrase
dphk
liteduke
rdbms
sunbelt
2day
580
535
6th
832
ample
a18
cta
e107
g20
gzip
hen
hab
haw
j2
lb
lpp
mfa
morgan
nm
noc
pis
qp
r3
rity
rounds
sf
tld
tds
tdi
tftp
uia
vip
vague
wk
yo
yemen
zcompany
##oices
##svc
##tw
##task
##tasks
##mg
##most
##a€™
##lists
##lucky
##nail
##hd
##bia
##fxt
##vp
##vention
##ych
##6ef
##drop
##gable
##gmer
##xist
##kip
##450
##zj
##ич
##го
ther
##oral
##ority
##item
##itime
##ecl
##alike
##etup
coal
##ston
##ationcore
##uter
##local
206
2020
##abc
##abber
##unct
##otech
##amco
fork
fores
forget
##adel
##irety
##elspy
proj
##ima
unk
undo
uncomp
otf
comic
##romaid
enorm
moj
moafee
suit
sums
##perty
##ccfg
commloop
shin
shipped
##erep
##ecutive
##ivable
malwarehunter
trilog
sez
waste
##ownet
##alls
loan
interloper
netlink
##dup
##spec
##iller
obs
##rued
dism
disagre
1010
cys
dog
gobl
aramco
abnorm
imply
grouping
##akte
##irectory
allied
prest
prints
denmark
teen
dllregisterserver
liu
liable
assure
siteid
clsid
multitude
certs
typographical
advise
subdirectory
##ductor
extending
flat
0x24
steve
observer
consecutive
simm
174
1701
retarget
entail
entirety
155
156
marine
maritime
14th
amm
amid
bytecode
##645
##647
##rained
winword
portray
specifications
ms08
mshtml
mshta
transcript
machinery
##trace
##154
originates
terabytes
utf8
underest
mailto
hardened
323
320
2726
2736
234
guerr
probe
2883
brig
##601
clearquest
3341
3338
3339
persistently
employer
employment
george
##136
xoring
0500
350
##304
obfuscates
##169
dyn
dynd
cne
cnccfg
argv
disclosing
hijacks
videocon
pasted
##mailer
refin
md5s
clickjacking
ensured
opponents
concert
##ockets
##ockopt
##reported
subjected
combines
replied
considerations
10073
volgmer
##books
##236
watermark
waterhol
pyong
pyinstaller
paladin
##lessly
arrays
donald
descriptors
economies
dissent
telegraph
sung
dbus
oilrig
submodule
reasonably
beaconed
shadownet
illum
ioactive
xxxxxxxxxxx
stealthily
##dragon
sanction
kevin
insertion
dips
supervis
calculations
continuation
ns1
nsi
eyes
ranged
bookmarks
diplomats
ilbo
ansi
4156
constructs
tailor
orchestrated
participated
##interface
jpeg2000
armen
euromaid
tablet
fastback
0x100
nightdragon
academy
squirrel
fuj
violations
jumping
##groups
facilitated
facilitates
exhibits
retailers
colorado
burma
recvfrom
nicknames
bahraini
semicon
treatment
##xyz
negotiation
negotiate
succeeded
guarnier
jeff
brazen
dimensions
bottoms
guessing
##account
olympics
lenov
##impl
##haar
##objects
encouraging
wishes
romanian
tmem
hamza
concealment
disconnected
nanjing
ubiqu
ecdh
##fficiency
snapchat
survival
4322
cadelspy
disappeared
kmart
precautions
bolster
passport
ﬁnger
ripe
alarming
mediator
petroch
cognos
rockwell
20100101
prioritize
dwcommandid
deobfuscated
directsx
remarkable
preserve
submarines
cambridge
1990s
redundant
thirteen
unconfirmed
sorry
gettickcount
subsidiary
tfim
trampoline
##ramid
sampling
borrowed
##limpse
##controller
kidn
camoufl
nokia
javasvc
bootstrap
unsurprisingly
dprk
##utomationcore
deltav
aadhaar
cedar
buttons
queried
deterrence
2daybiz
uiautomationcore
##kipot
goblin
dyndns
supervisory
euromaidan
guarnieri
437
497
590
627
650
8e
8th
864
9th
a9
aer
aro
bay
cg
dg
eq
eweb
fx
gid
gch
gill
hid
hain
hcm
ion
ist
jer
jhtml
ki
kaba
lm
lstr
mst
mmpc
nem
ncc
nod
ogg
oman
pb
paign
rows
sac
sian
ti
taked
v0
w3
wint
wua
xin
xmm
yub
yaml
zub
со
##olo
##sun
##sch
##trust
##matic
##makers
##aug
##cements
##uart
##uits
##lus
##nan
##nie
##hoot
##hift
##block
##jik
##joy
##vg
##yte
##yane
##5d
##520
##9000
##downer
##kas
##pets
##4f
##−03
##ац
##ﬁc
##²¸
##inject
##enu
##array
##ecd
##econfig
##icy
##icle
##icial
##acher
##eta
##stats
##level
##ector
usps
##igible
atd
##otic
##amil
onwards
##rik
stakes
attende
ashi
##agio
##agick
##tsp
##omain
##ateful
##cep
enum
enjoy
conting
contagio
##ocore
##sey
malloc
spite
champ
sud
su2
vulnerabilit
sykipot
sherst
##earray
webcenter
traps
intu
datast
pod
interrog
interconnected
intermitt
##upnp
##umbs
##iphon
##this
##coder
userspace
pleth
##icted
commander
commandline
abbre
recre
implicated
canon
##akash
func
relates
decipher
backbone
microso
directinv
if000
invoking
technica
assante
webservers
infector
##mless
whoever
avatar
avstore
##320
advanc
monde
##pritz
flt
openly
driving
0x41
0x000
0x54
0x3c
##obo
consens
##ldap
supplier
mainthread
##ittens
freemail
postings
134
13th
1875
methodical
polls
166
##php
1961
sentenced
win64
specifics
discard
maudi
valuevault
realistic
##trans
##150
restoring
charter
charlie
227
mailag
carr
solve
headed
drones
##shift
insik
2180
demonstration
bright
classical
##exec
greece
336
3393
distributions
##itsec
##ijan
061
importing
grade
64bit
##144
cloudpets
surre
nonce
nonprof
0509
2600
##ontakte
##869
##308
archer
sysupdate
specialize
specializes
myweb
##override
shortcodes
##project
skia
347
3497
collections
appending
refug
trustworthy
dependency
simplicity
ntdll
opponent
motion
##baijan
considerably
1002
mitre
harmless
svc
655
powerspritz
missed
alma
advises
telebots
desktops
regarded
instantiation
tricky
sponsorship
##warf
bearing
achieving
mutual
arbitration
wipes
jp2
arabian
xxxx
sheet
smartcloud
##691
correcting
gothic
psiphon
##inski
skillset
disguises
##download
viber
diplomacy
territories
renaming
repeating
nonexist
dispens
wiret
coordinating
4158
4153
4151
observable
pngdowner
cscub
answered
3325
##brew
iphones
consultants
fraudulently
curl
groundwork
cryptolocker
omni
shortcuts
impressive
0x1d
webcams
iterations
##addy
##plugin
squared
gangs
experiences
violent
davis
ttf
pirated
dragosinc
imagem
notifying
islamabad
railton
jenxc
caracachs
##limited
predictable
netsar
passth
transitional
exchanging
speciﬁcally
s7ot
mountain
iiocs
0000ea
ambass
4148
tajik
nanocore
accidental
klif
texas
bhd
interrupted
rhet
lebanese
intermediary
traﬃc
exceeds
thumbnail
worrying
spawning
cancel
concurrent
##anovich
struggle
cuba
reinfor
dwcommandtype
rerol
torto
##number
jimmy
vkontakte
seanux
entrenchment
rocra
ostens
0x23fae
perpetrated
hierarchy
referrer
gilg
religious
celebr
mismatch
abdull
db8061
elasticsearch
nicklocklucky
sprintf
eavesdropping
azerbaijan
internationally
videoconferencing
dipsind
squirrelmail
lenovo
petrochemical
gchq
takedown
ashiyane
plethora
directinvesting
insikt
jenxcus
nicklockluckydog
0×
3q14
4h
418
496
550
615
7z
890
877
a55
bub
cb1
eug
fis
fos
gan
gds
gao
ju
jit
jason
kios
kiev
lw
lag
lip
lizard
m2
mw
marg
mine
ni
ncp
pear
paint
r1
rle
rib
sdn
tx
tz
t28
tao
uzb
va
voc
wap
xm
xul
x509
д30
за
##oom
##sys
##masters
##ein
##rants
##cia
##ucl
##lich
##lug
##law
##lnk
##bab
##bind
##factory
##vms
##5e
##das
##iat
##iro
##glob
##grid
##pip
##pdf
##pitas
##400
##zi
##wow64
##ия
##он
##ру
##only
##atre
inev
##arc
##arre
##alc
##aled
##ils
##reen
##requ
##ersed
##leash
usable
revert
reinstall
beef
##abe
isf
##igg
##igan
exim
ats
##river
stru
stance
stressed
wholes
##elco
##aghi
##emot
weigh
##imm
bye
unloc
unlimited
unleash
compelling
adher
enig
contest
##dez
##isto
##esta
##estring
cheng
cherep
modu
##ccifer
sysp
##soever
shops
ships
expands
tracer
intro
scier
phant
incomp
sake
safer
##iport
disney
1014
##ached
##achable
##coe
##cope
ably
recurring
recalc
idf
maneu
confused
groupware
##apol
timed
executions
113
11th
directing
hebrew
documenting
somebody
invented
outward
outsour
mayor
identi
proves
valign
##arta
ipaddress
opa
quits
quarters
fees
clan
firstwatch
##ogle
readwa
subvert
mono
ext4
troop
trooper
tropic
##prints
flare
##kaz
versioning
0x11
0x14
packing
urld
mainloop
develops
intelli
crashoverride
1365
1996
sentry
##640
smugg
winver
explored
whatsoever
indef
msr
discount
maid
distur
warri
whereby
realities
realizing
244
commonalities
libc6
chars
endless
underway
228
nameservers
##show
##shore
219
2184
encoder
bypassed
3015
27th
checkin
guccifer
##engers
imagepath
probes
0779
##exe
##608
##onsecurity
0422
3330
persisted
067
authorize
swiss
surge
##affected
agentkernel
resolver
26th
##itingdata
intelrs
sysmain
##805
408
specializing
myriad
cnitsec
shorten
##352
##296
##297
##aze
##407
mothers
lowercase
consistency
##gof
voltage
da8
crimean
inputs
reconfig
econet
comparisons
condor
humint
sunrpc
##notes
5638
nationwide
derive
circulated
cncgroup
miscre
satan
4160
filtered
adapters
pressed
dwpayload
openshift
situational
escalating
weakest
ioa
##systems
graphs
bills
legalcopy
fontcache
cleaner
ghostadmin
sanity
midi
dangling
superior
calculates
intercepting
converting
weaponised
recognizes
introduces
ascertain
trem
cfnetwork
keystone
ep10
sellers
wave8
wave9
##iﬁed
##crab
impersonates
sucuri
4159
4157
influenced
collaborate
3328
completing
contributors
##faq
krisr
watchdog
philo
presumed
coincide
charger
austria
heartbleed
jboh
7600
caches
penetrating
assigns
0608
0607
##changed
ethical
michigan
msi32
honker
tsar
emphasize
premium
milpitas
##directories
indictments
netsvcs
flooding
encourages
scientology
snippets
4113
unintention
troubles
permitted
unreli
unreachable
perfectly
tamper
delegation
autonomy
mailboxes
favorite
depicting
honeypot
xslcmd
stamps
daniel
dominance
sparse
ripgof
mongolian
elligence
rejected
struggling
prosecutors
merge
diligence
corroborated
motorola
inconven
remarkably
supplemental
##remote
defectors
animation
sccp
##privileged
polymorphic
2h14
conferences
incentive
avivore
##attributes
judgment
adequate
5119
patrick
ethiopia
falsified
regulatory
municipal
czech
##torrent
spiral
resumed
truncated
multicast
uncertainty
predecessor
female
vorbis
##responsive
courses
umairaziz
gandcrab
##squad
asynchronous
larson
venezu
algeria
columbia
matthew
conglomerate
nocase
##иче
enormous
pyongyang
ﬁngerprint
zubair
microsofts
consensus
rhetor
lizardsquad
uzbek
cherepanov
modulo
scieron
readwaitingdata
legalcopyright
umairaziz27
3000
618
638
8x
bn
bers
bold
burn
dst
dia
dress
dlp
ere
egg
efficiency
fro
fib
frat
fisher
fiction
gz
gow
gss
glimpse
h1
hun
hend
iat
iml
josh
kal
kle
kur
kir
kos
kick
las
lloy
mn
mf
nin
nss
nomin
osp
odbc
pf
p4
pand
peng
ria
raf
rasc
ryuk
s2
sina
sjt
tec
t10
uag
vic
vup
v10
wab32
xo
xps
ypass
zeal
ат
ﬁre
##oh
##sy
##table
##tls
##match
##axt
##rint
##uis
##uation
##uel
##lord
##non
##night
##hg
##hran
##bud
##fut
##free
##vk
##1z
##132
##diction
##iates
##ges
##gone
##games
##xsl
##kom
##px
##pat
##4a
##zak
##wm
##ль
##esy
##ester
##enet
##enbe
##itious
##itous
anch
##ecert
##ecured
##ecenter
##allow
toky
tocs
##icol
##anel
##ille
##isa
##isi
##acm
##etz
cod
##asive
##rees
##reuse
beach
205
2051
##abit
isapi
##igner
##igroup
##amam
forever
orbit
##riers
##owers
stall
stap
sticks
stuart
##iris
##elect
probed
##ifil
##ptrolling
alzip
##ithmet
##olta
##emory
weight
##img
unprivileged
##chenko
filecoder
compens
adult
##ocations
##debug
malte
spell
spora
spamming
mos
su1
##cc2
##sob
shocking
resent
cafe
##earth
expetr
intuit
seo
datetime
bittorrent
accomm
006
0090
00000
##izz
##ounted
##antic
##antir
##ipn
operatives
cycl
repair
arf
arithmet
commanded
htc
abort
idc
idle
imposed
filesize
cyberth
regu
##ubs
##ubted
##mined
docume
decent
##onged
1100
emailing
##odia
##osl
outstanding
logos
2013−03
controllogix
##intend
injectors
##xture
assump
updat
quit
encyc
cloned
##324
typing
substring
subdirectories
softlogix
multiplication
organize
flnet
devised
dridex
0x45
acer
acpi
linkages
##webs
knownsec
wrap
hadoop
simulation
mainstream
uthenticate
peac
1500
162
1970
legally
bytearray
portfolio
lookalike
blvd
longstanding
##156
##conf
##oster
libyan
profibus
patchwork
lasted
lastpass
bannetwork
attaching
32bit
##clinton
2728
labelled
labcorp
needing
copycat
bravo
proxys
##atories
incremental
authoritarian
primitives
buildings
##138
##137
##2012
blackstar
blackworm
nationalist
snd
##ontent
stacking
archiving
sysdir
403
authenticator
##product
##proof
construed
##hips
personalized
hpc
ntuser
ntuninstall
xpath
farsi
rc3
cpus
xmlrpc
##google
practically
golden
##bc5
magnetic
palantir
assisting
masashi
csctn
cscty
csctd
panarin
overlapped
##777
##notify
ec02
ecommerce
implanted
indiana
concludes
examines
derptrolling
pipeline
copyrighted
journey
wanting
pcre
unsecured
translations
eleph
adapting
mimics
raid
precurs
##fcase
selects
##scripts
scrap
hkgolden
ghostscript
renders
briefcase
talked
lnk1z
##updates
reduction
ideally
bundles
codesys
ajaxt
disruptions
surely
fp9
fp4
sooner
announcements
heard
mandatory
educated
##decrypt
unrec
mailslot
vbulletin
tenant
seg000
recordedfut
##hosting
sametime
4152
4150
4154
correlating
influential
guardlogix
incorporate
##commands
scarab
constructor
3326
3327
3324
sabpub
purchases
##yyy
xtension
pcclient
3646
minds
casts
academia
seeds
seeded
##computer
crackdown
karba
aggression
luh
pixels
shifts
branded
ignoring
0xffffff
honor
grabber
dimin
##ihata
##front
feeling
awt
strengthening
chartreuse
acquisitions
perpetrator
measurement
savvy
distinguishing
##xml2
lzo
0x2000
renderer
scrutinizer
immunity
pulling
fruit
prefixed
4149
4147
##ение
yanu
checksums
securid
securities
inherently
c919
denying
trailing
optimizer
kenin
kenya
muslim
russo
atomic
subscribe
mh370
advocacy
sgos
guangzhou
suckfly
krebsonsecurity
blowfish
hillaryclinton
sweep
trolling
heuristics
bounty
indiscriminately
mccarth
tightly
gdpr
swedish
eavesdrop
cursory
ballistic
proﬁle
proﬁling
uptick
uptime
deduce
tester
fsbspy
reproduced
ctfmon
mathematical
plagiar
misconfigured
kasperagent
lawyers
bulgarian
complaints
bucket
unwittingly
bitcoind
volunteer
cctv
recycl
indusoft
wolf
chronicles
95035
deceptive
theoretically
johnson
nishihata
conspiracy
morocco
prototype
convinced
underscores
попр
undoubted
uncompressed
dismant
hainan
yubo
nonexistent
imagemagick
s7otbx
ambassador
0x23fae2
cb1st
struck
venezuela
##ическ
rascag
sjtu
vupen
##enbeeck
tokyo
maltego
accommod
assumptions
ajaxtm
recordedfuture
mccarthy
undoubtedly
1s
4g
484
588
595
666
8000
844
aac
ams
bif
bare
barg
bond
btr
bunch
cst
cim
cws
ccalc
dms
dvi
danti
ej
e7
fm
gge
gender
hv
hans
hamp
iz
iop
ka
kurt
kai
lia
lately
lived
lingu
mic
mft
mav
muc
mmap
masters
nmap
naked
ooo
pon
psp
paged
pins
ray
rtp
rough
rush
rmi
ses
sri
sir
sla
sdp
sfc
sino
sssd
tce
uf
vl
ved
vpt
vod
v12
wn
wsh
wcf
xyz
zim
об
##sn
##tz
##mc
##mess
##mond
##r7
##rising
##c04
##uite
##lay
##next
##hate
##held
##bec
##fold
##vt
##5h
##567
##300
##6h
##dings
##detail
##ius
##gid
##kj
##0f
##pre
##4e
##was
##ои
##нф
##erpt
##inmo
##atform
##atlas
##eno
##enum
##ecexp
toy
##iculous
##icago
##iler
##eties
cox
##asco
##leaves
##utls
bejt
##urse
conserv
##igent
##uskas
##advant
attain
asm
asmx
proftpd
proclaimed
alg
alper
##agers
##ols
##emod
unread
unaffected
filling
##romanic
contemp
##ocks
chicago
moinmo
##pergle
debit
resp
resumes
caf
expo
crude
tr1ad
scad
scoring
scorp
sciences
##indest
seh
datac
para
interven
lew
ob35
##ruption
uprising
disadvant
##coop
afford
gover
##assian
abund
implicate
deton
detain
itsec
##irectional
hopper
##ubmit
strat
allusers
1158
evfs
prone
##grad
php3
remsec
keyview
keychain
teacher
desper
designer
newromanic
toolbar
anybody
proving
##ribed
webservice
websecexp
messag
defunct
infring
1251
numer
offending
enclosed
callisto
apt15
apt35
modbus
passwd
workshop
##328
proto
botmaster
subfolder
subkeys
monkeys
signup
governance
0x90
0x03
getmodule
depos
stepping
c2c
frank
observers
supporter
peppy
laid
##uese
programmer
registries
137
##phones
redleaves
##icker
1950
1991
sentence
sentiment
##643
miniport
mscom
elected
eligible
behave
##158
##conv
efax
erase
clienthello
medic
undermin
carecert
##ilitary
solic
sp21
duck
##ergo
2165
2177
2175
2171
2166
2176
3043
trafficking
industroy
##clamav
233
230
threebyte
##engate
integral
cisc
paired
##117
classify
textual
##603
newsbee
newspapers
3332
3334
distributor
##284
grateful
safran
##afts
rooted
automate
proxying
054
testim
##ova
##ovsky
dotnet
##aiu
sysinfo
syswow64
markoff
obfuscators
##197
mybulletin
diskcoder
argu
argue
collectively
appendices
3600s
ntkrnl
resourceful
suggestion
priorities
excerpt
##336
cpc
ethere
entrypoint
1007b
spoofs
spynote
exporting
practition
rtnic
goldengate
damaged
compresses
avoids
##pcap
lacked
approached
4880
submits
pipelines
sitting
ruag
cozycar
marketed
pcrat
courier
##alfa
visualization
enforced
sshbear
##bbbb
affinity
bankshot
axpergle
stealthier
initiating
ie6
embarr
unpub
gmx
ns2
ns01
catastro
converts
civilians
inspected
fp5
glitch
menus
substations
respondents
hearing
alternately
cipher0007
grids
igfxt
atlassian
bindings
exposures
disposition
affiliation
tinymet
reliant
reliably
coordinator
divisions
correlations
correlates
njq8
stayed
upgrades
collaborating
10002
3329
luxury
contributing
orchestrating
2000s
kingview
remediated
westdc
babar64
oversee
3640
quarterly
academics
##monde
youth
consequential
cryptocurrencies
assembler
experiencing
reflective
##discover
perspectives
jumped
exhibition
uppercase
tendency
wsdl
cylanceprotect
alterations
##protocol
preparedness
evaluated
parliamentary
jew
comprising
turkmen
dimnie
illegit
illegally
gpg
msnmm
pools
instrumented
c4ne
courtesy
guaranteed
dhcpv6
##eiro
msvcr
rigor
migrate
##ств
immune
xsg
##dtc
heightened
##asauskas
dji
negotiating
klg
oddly
concatenates
aukt
mrxnet
optimization
tampering
undertake
undertaking
refunds
km153
exceeded
advocates
ecom100
rewrite
synchronization
cancelled
ultras
createprocessa
mirrored
dramatic
icmpv6
##sophy
adept
ewon
mingjing
subtract
l2tp
objc
anticipated
graduate
duties
rumours
portuguese
distraction
a€œ
mso10
artefact
geared
sccm
##privilege
##donald
inaccurate
inaccuracies
bossert
reconstructed
rimasauskas
sarah
foreground
insiders
grammar
scrambled
wtr414
tv5monde
dolph
woolen
wonga
restaurant
ddrlog
##builder
syndicate
tianjin
sergei
analogous
smartertools
breadcrumb
tandem
prospective
moniker
whisper
emanating
xxxxxxxx
veterans
thedark
indigenous
irrele
##lopedia
conscious
pisloader
sanctioned
wuaucl
surrept
tortois
ostensibly
ribeiro
wholesale
urldownload
dwpayloadsize
tremend
philosophy
unreliable
uzbekistan
61850
erebus
wab32res
zealand
атак
##xslt
2013−03−
precursor
luhansk
bifro
btrfs
bejtlich
alperov
moinmoin
tr1adx
allusersprofile
industroyer
newsbeef
mybulletinboard
ntkrnlpa
ethereum
rtniczw
sshbeardoor
embarrass
catastroph
igfxtray
turkmenistan
wtr4141
wuauclt
3s
3par
629
636
7zip
ary
cial
cents
cme
cdc
dre
dpp
dstr
dcp
dma
ech
egr
efficiently
fot
fud
fuse
gib
gabor
gfs2
hpl
huc
hdd
hmodule
ian
iii
ieee
jok
jones
kon
kash
kberry
liv
mack
mace
mmm
mdl
madi
nich
nipp
ndc
oa
omissions
pd
pia
pang
pie
ploy
pkt
pki
qword
ri
rg
ric
rac
rect
riv
raiu
sow
sftp
slocker
sbin
turt
tale
tfc
tape
tumb
tips
ust
vios
xif
до
при
рос
ﬁve
##tv
##tab
##mat
##mai
##mgm
##a65
##ebug
##rf
##rw
##rad
##rations
##rison
##caster
##nell
##nium
##node
##hl
##hen
##bal
##bfe
##blocks
##fri
##var
##van
##vari
##523
##6f
##915
##dle
##iya
##gch
##kh
##7c
##ploit
##ит
##на
##atial
##attr
##atars
##edict
inaug
##ita
anm
##ecot
##ician
##ispy
##etect
couch
##aserver
##rey
##rell
##street
##utdown
##love
reusing
reassemb
bea
beend
iscs
##unix
##igator
##otive
##forge
##rio
##adays
ster
stan
stder
whos
##irable
##ello
asr
##emakers
wein
serend
##iman
byz
unst
unchanged
unresponsive
##child
##area
adhere
adodb
contexts
##ocl
##andal
mali
itcoin
itaduke
notion
sp32
spindest
chef
chats
su3
sug
dean
##ichound
shm
shtml
weblog
crete
##kee
trap
traf
trait
scat
scop
seil
datong
interacts
##licker
##enders
##ounced
##ouncia
neo
##ightp
##ellaneous
leouncia
##antry
##rudo
securitylabs
userform
##tholo
##achi
affor
dov
armin
grows
groove
abrupt
idn
imper
mann
basemod
overly
overrun
##ubuntu
##nett
str2
deciding
containment
##tainer
directions
directives
denote
phpmyadmin
tehran
versatility
differing
##logon
camps
campus
valued
##artner
liability
##ypes
assaults
websense
websockets
nois
noise
infra
httpd
quo
feib
claudio
activism
apt17
apt33
cerrudo
hacktools
##32e
##321
readfile
signiﬁc
multipoint
organiza
prevail
trove
html5
0xe
0x18
0x99
0xa7
acp
##obytes
steph
stepped
crossrat
imei
sqlmap
writers
counting
meets
peking
ratankba
launder
15th
marquis
1370
1440
1686
credibility
brook
191
1949
ambit
ameer
vision
visually
smoke
appth
minus
msw
msdtc
blk
blasco
253
257
worried
discrep
els
realtime
##155
245
242
2464
commonplace
##osti
libc
restor
restores
##saw
earned
undergone
2200
csec
solt
technologically
dr0
dueling
daybreak
##mew
2160
2187
2182
2178
banners
encodings
321
breed
##poke
##atively
image1
validator
revenues
038
compiling
##exit
resultant
cleared
flashback
flashpix
greg
##appers
0411
3335
3331
presentations
purports
0619
##parts
geers
295
everyday
everywhere
riskiq
build10
surg
surpass
tlb
##georg
##135
nowadays
responsive
responsibly
automotive
approve
##ovolta
##303
airports
salam
##802
##807
##168
##198
##190
crypted
##overlord
shortener
##17b
##timeout
skips
singh
##359
##346
##347
3650
3652
boire
facetime
opposite
##settings
conflicting
slave
captcha
##oolger
strongest
##audit
placeholder
weekdays
##atherine
##231
homeunix
telvent
goldsun
difficulties
##221
magichound
powersploit
syrians
masking
##955
horenbeeck
humans
havij
##856
evolves
advisors
dissident
dbg
keepkey
##gui
playstation
humanitarian
doublec
dropit
##473
printable
instantiated
diver
divert
anonymized
transliter
##946
kills
stopgeorg
dwlasterror
boots
sandboxed
srp
photovolta
enumerating
##bbb
measured
distinction
clustered
ioas
aiming
axis
hk01
voip
bartholo
##instance
gotten
exclude
excluded
excluding
mrg
supervisor
tvt
##etermined
propagated
inspecting
stood
recognised
recognizing
fp2
dubnium
##opsis
badly
##username
proceeding
treas
reneg
sleipn
lynn
igfx
##ricts
binds
budgets
risen
errone
cabr
republics
guarded
crown
waited
cscua
xxgch
pwd
synopsis
queued
morph
##marketing
##kiri
##interval
kr2
interprets
lanka
3648
3645
3649
3647
analytic
##default
jumps
fsf
rotation
extraord
favored
mssec
reviously
publishers
evaluating
submitting
bespoke
behavioural
hyperlink
0x0d
railway
grabbing
##commander
premise
quantities
recruited
padded
thinks
##zhen
bmh
unpredict
workaround
##async
msvck
lzw
##ervices
sqlite3
registrants
rooms
hellman
inconsistency
holidays
congressional
loadlibrarya
popups
songun
##policy
delimiters
urges
qti
chongqing
alphabay
zerot
chipset
ultra3
nytimes
conguration
reminds
deflate
pursued
hmrc
mkv
bouncer
cogent
reddwarf
##885e2
paragraphs
arrangements
literally
##racuda
kordllbots
halted
ratings
booz
kilobytes
skew
accelerated
separatist
mixture
lieu
miscellaneous
voters
redundancy
culprits
gigabytes
ruled
ruling
ancient
codename
codenamed
steady
crawler
gholee
reservations
##аль
ciphers
mohammad
intensity
exempl
insidious
lawyer
bulgaria
fleetcommander
mgame
deserialization
##орм
##provider
cathay
wbem
suffix
agnosticon
freelance
tilded
amplification
ﬁlename
defensecode
voluntary
jiripbot
intimidation
edg6ef
0x80061
unserialize
overwhelming
girl
saverextension
harassment
fascinating
##hacker
discredit
brackets
brunei
##a€™s
foresee
semiconductor
camouflage
86400s
omniinet
netsarang
eugene
gds520
enigma
chengdu
ablyaz
recalculates
opaque
sentryo
indefinitely
inconvenience
rhetoric
henderson
iml32
arithmetic
reguest
encyclopedia
peacetime
elephant
yanukov
vptray
unreadable
lewis
medicine
practitioners
thedarkoverlord
tortoiseshell
alperovitch
3para
nipplib
turtle
tumblr
##mairie
couchdb
beendoor
stderr
serendip
abruptly
stephen
appthority
doubleclick
stopgeorgia
photovoltaic
bartholomew
sleipnir
edg6ef885e2
4000
498
586
565
750
875
bos
bob
bird
bisk
brid
bpng
bvirt
bibl
cx
cust
cder
cff
cds
dz
diz
dwr
dpc
ez
ews
ese
eld
effic
ehp
foc
fager
fda
fips
frog
gtk
hb
hes
hero
jam
jbe
jabber
kent
kaw
lone
lance
lank
ml
mpl
ning
nis
nim
nom
nsl
nbc
nbot
odt
pmd
ral
rab
slot
tam
trib
tdo
t9000
uec
ucs
wx
wz
wen
wis
wscript
wpa
x25
xauth
zapt
инф
ком
от
##oas
##och
##sim
##tap
##tcp
##talk
##mag
##mont
##aired
##e75
##rino
##c87
##capt
##8h
##uu
##uae
##high
##bm
##b64
##bby
##bnb
##found
##f88
##vu
##vit
##vable
##5a7
##3h
##6d
##9m
##game
##gins
##xm
##xel
##kar
##kittens
##0a
##p1
##paces
##zok
##wess
##сии
##ую
theories
##inos
##esity
inade
##enumer
##enara
##roject
##ilisi
##isive
##isance
colo
coder
codo
##erse
ush
rea
rewards
reacted
reforms
beast
##urch
conform
conway
##abg
##iga
##igate
ate
##usi
##amin
##adig
##adow
stro
stays
##elter
##elib
attend
##ifiable
##agen
##agga
##emic
##embed
serbia
uno
unconnected
unlaw
unearth
##chen
##chair
enth
##dek
##device
##andbox
notices
spice
spss
spans
spie
spider
chanc
chien
suited
suffers
sysc
shah
resence
expon
webapp
webwas
##argument
##kei
trave
##quake
##ssier
scommerce
bitshift
interruption
netbsd
accus
hass
##actor
saade
##ibank
##ellor
league
obesity
upstream
dispro
##cos
emulate
cypr
instability
plm
goph
20101
groupt
commanders
windowsupdate
htt
network™
imprison
mang
confined
confusing
cybervision
cybertrust
regulation
houses
overload
##isha
##ishvili
##mini
##miner
##minzok
strang
decides
##ards
linode
##oker
directshow
prad
crafting
victory
remot
invoices
outl
outf
twe
creater
dllentry
##arten
injections
##opy
##opher
pref
##xtools
deface
defended
differentiate
paramilitary
1237
1234567
quar
quagga
offshore
multib
avid
passively
privatem
foundations
advances
readiness
subord
substr
responder
##pra
openvms
devic
devise
0x3
0xde
0x28
0x55
0x39
getdri
fines
packs
packers
wrapping
sendmsg
177
17th
urging
presidents
meek
googlec
peb
##isson
retired
enticing
lai
138
1367
1368
1372
1373
trojaned
1427
1493
1979
amnes
sentiments
##6402
smash
##raining
winc
winamp
apac
minsk
##eeper
osf
blurred
251
2540
maf
discoveries
plugged
wherever
##plorer
realmedia
##157
charts
221
cs5
##122
carol
easiest
drone
lasting
##sho
localized
accountable
hardy
##resource
sharp
011
##ancer
##ancies
needles
validating
0764
copykittens
revol
##awa
tempo
proxied
cisos
##111
##except
blocker
distributes
##283
##tofile
##axy
0620
0623
geum
grah
##145
surm
contextually
##130
joe
##208
##201
blackoas
convicted
0571
0578
0572
263
##raid
rsa®
3544
##301
airbnb
linksys
markup
##808
4096
##ekt
cna
##property
centered
skyp
smallest
collector
taskhost
##attach
##graphy
##290
spreader
boelter
##gorilla
writefile
suggestive
##374
opposing
318
departure
rcx
4704
r2games
weekly
acceptable
mcdonald
tuned
purposefully
##athy
flawed
periodic
banker
homepath
##epy
understands
twitterjs
svcmd
waterfilter
fallout
6090
##953
csctt
##backup
##966
havoc
piwik
citect
##guide
536
titan
##learn
choices
sitem
sponsoring
dumper
misdirect
uriminzok
offerings
achieves
raon
bigfi
6300
zips
counterfe
schedules
conditional
holders
holdings
affair
xxxxxx
naenara
forensically
falsely
barracuda
##insta
dangers
moderately
lifetime
politic
surveillanceware
compete
superf
calculating
histories
radisson
lightne
citizenlab
propagates
propagating
msiexec
##ollah
##aoux
ciphered
zhcat
repeats
hiber
modernization
foxpro
tinyurl
cablec
saml
qualify
##umbler
laboratories
higgins
##offset
##commit
bsd
commissioning
##b7c
purchasing
##content
debilit
kingsoft
coupon
gnutls
remedy
sleeping
0x5a
##utsche
domestically
3643
3641
3642
3644
austrian
iterate
##recover
slowed
fetched
kyle
deceive
execstr
burning
officescan
brandon
branding
baum
pseudonym
ethtool
tsb
shipbuild
comprise
blankchair
emphasizes
procure
##frm
##aredon
##eva
belliger
conceivable
critics
netsvc
pkcs
bootkits
dtls
##status
concentrate
gamaredon
dsn
precedent
scrutinized
0645
0642
e0401
inboxes
troubling
disconnecting
ventures
aggregated
sanitize
ognl
identiﬁer
disappearance
delegated
african
zerod
zeros
rewriting
synchronize
gulpix
ultra
mfc71
##cyber
apsb15
##noe
navalny
systemdrive
##kinen
ellipt
pornographic
ronald
prohibit
subtraction
kwang
createthread
crippling
forgotten
galaxy
lithuanian
hungarian
deobfuscation
cambodia
skept
viperrat
cursor
##iwi
satisfy
satisfied
marczak
spraying
steadily
diego
encompassing
akam
withdrawal
uniform
casualties
adequately
misspelling
cumulative
stakeholders
unmask
cruise
uglygorilla
haystack
##java
assassination
pediat
createfilea
cwoolger
hipchat
jonathan
tbilisi
vacon
zwshell
scareware
confrontation
1007b5
sexual
fighter
jakarta
kovter
tapaoux
ubercart
whg0001
disclaims
revisited
appreciate
harvester
kiddies
muddy
consolid
mistakenly
duojee
mercenary
украин
coalition
malwarehunterteam
retargeting
underestim
guerrero
nod32
canonical
dispenser
wiretap
##lnkn
koskinen
lloyds
nominal
ﬁreeye
beachhead
decentral
plagiarist
s7otbxdx
bargain
ccalc32
scorpions
disadvantage
infringement
numerical
testimony
arguably
unpublished
illegitimate
dolphin
irrelevant
urldownloadtofile
jokra
mackeeper
iscsi
byzantine
dovecot
restoration
renegot
cabrera
xxgchappy
mssecmgr
unpredictable
ablyazov
biskvit
cderlearn
dizhi
efficacy
fagerland
mpls
zapto
inadequ
webwasher
cyprus
gophish
grouptumbler
amnesia
graham
blackoasis
uriminzokkiri
bigfixtools
cablecar
5th
697
665
880
925
9000
bz
bed
bans
bost
cpt
cio
cious
cater
ccs
citing
cables
cbi
catherine
dug
dfs
eagle
eipr
fish
gest
gates
gong
hh
hac
hoc
huss
haq
jb
jpoa
kip
krypt
kiss
kitty
kiwi
lc
l1
lx
ltering
mers
mul
miv
munk
mumb
mhtml
nac
nancy
ndisk
ous
oak
pier
qr
q1
rlo
ress
rio
rome
rav
ridd
raph
rented
sad
sonic
sanger
scep
ture
tpl
tsa
uwn
vd
vins
wc
waged
xc
xf
xdo
x11
xmd
xfrm
ynk
yaser
ymal
zabb
##sdf
##m2
##mart
##mount
##mask
##aac
##a82
##eaf
##r2
##rup
##cue
##cone
##uct
##lt
##lk
##nest
##hu
##hk
##hed
##hap
##hav
##hua
##hower
##bad
##bees
##je
##jl
##jj
##jit
##jax
##fill
##f00
##func
##vo
##vue
##vanovich
##5b
##6ab
##945
##1888
##dh
##d13
##d65
##d3d
##ias
##iency
##2x
##710
##4h
##zo
##wy
##wap
##wizard
##qiang
##иб
##ки
##ам
##erk
thai
##inx
##inar
##inib
##inates
##inks
##inces
##edon
##orf
##orandom
inoc
##encode
##itate
##arians
anel
anime
##ecms
##anz
cohh
##req
##reach
##repr
##reoffice
##style
##stein
##leased
##lover
##ulators
reper
reform
remin
##urer
##urations
##abl
##unner
##igation
exotic
atp
forc
orb
##riever
##adv
stl
##idget
##elp
##elecom
prowess
##ife
al9m
##terror
##emode
unregister
##chan
##ppers
complicating
admit
enl
ende
##neres
##seong
malcode
malwr
##estor
##estag
spf
cher
cham
chry
church
mooo
##perform
##permission
##heritage
cker
commitch
##ortium
sybase
shorter
resid
resort
exped
##iva
cra
trd
trist
##quot
inters
datatr
poet
##alling
lod
loans
interpol
##licens
netsh
phi
##updata
income
additions
##illary
saa
003
0020
neider
##umar
##llll
leon
serverhello
##ipes
disallow
1080
1018
##achenko
emulator
cyc
repack
replicating
plg
dojo
dossier
##ressive
##ulty
networker
idsa
cyberlink
regulator
timelines
overarch
##ansfer
decisive
directors
##odtool
speculative
phpmailer
remn
pert
keyring
inval
runas
accessibility
technet
twiki
creams
microsoftzj
##intel
provinc
provinces
##artz
ip6
websocket
defiant
infantry
infinib
whopping
whoami
1295
httpchen
op13
quad
cores
corba
buzz
multigroup
avatars
foundstone
worksh
workforce
delhi
##doom
mond
flux
appearances
0x64
0xa4
0xc0
acs
acls
acute
##ribution
formally
currencies
generators
imessage
consortium
betaling
memo
memc
memcommit
writ
wrappers
simda
sendmail
wellintech
1788
1703
retriever
entrepr
1564
##loyd
marking
1337
1366
187
1856
##phia
##photo
sourc
1989
amend
sielco
china169
investing
investors
##64450
starttls
miners
minifil
ms17
msdev
irish
transc
warrants
antisec
elec
2400
2454
libs
libreoffice
charity
charset
wordpad
undergoing
##125
##124
careless
referral
solved
##shi
##shan
insist
insult
designator
3010
blogger
327
##clip
findstr
239
envision
0757
##aways
integrate
indexes
tempting
##118
##olding
##609
##scby
0600
breaching
grc
grasp
swing
cloudbees
build2011
##afa
##202
##2013
4506
adversar
interna
0560
0561
0574
0559
0573
populate
##307
salary
myth
mycare
myheritage
mydoom
cnbc
redirector
family1
##174
args
argent
argues
##35e
##graphics
##dbg
##29a
##295
##294
randomized
dependencies
##895
electoral
##875
selinux
nteps
suggestions
##41f
miller
maintainers
driveby
##242
turbo
##apsi
08x
diffie
##974
roar
slapd
##tea
scenes
mck
802
purposely
##239
##2384
harness
audits
rtl
goldfish
fraudster
falcone
interacted
palette
powershower
csctu
csctw
##962
commentary
##456
dbms
greenfield
5795
circulation
diary
diachenko
##hook
##63c
mimicked
##relay
esrc
temporal
surveil
sideloading
courts
professionally
pressing
sockss
dwight
dwbytes
raj
hitachi
uncation
wipers
countering
counterparts
costin
gameover
silibank
silvanovich
maturity
bars
barcode
livegrid
plaaf
smbv1
##updater
psd
lifted
americans
continuity
historian
bundestag
##aaa
gmo
traversing
lightly
weaponize
contracted
disguising
##white
recognizable
fidelity
football
softs
robo
msgsend
zheng
getsockopt
epoll
##webserver
limitation
innodb
cooperate
cooperating
strider
harvard
benefited
benefici
absor
divul
guardians
decompressor
spoken
baby
droppersolution
unicorn
collaborated
pwdump
synth
rawdisk
commissioned
infiltrating
consultancy
tional
armaged
kraken
##iosity
philadel
curiosity
licenses
omits
mm523
##cription
mindset
relaying
warranted
knocking
terrorists
narang
squee
fetching
waiter
dupe
duplicated
duplicates
degrees
assembled
reflecting
nbm
rotating
balaghi
consuming
encountering
attracting
burling
adopting
bidirectional
piracy
pseudorandom
parliamentarians
fatal
springs
ecosystems
possessed
undetect
emphasized
nnmi
masquerades
masqueraded
awa
rva
deathclick
guessed
predictions
anomaly
bpf
##devices
obscured
arrival
0x464450
bias
administered
##filesize
guarantees
concentrations
gamar
jackson
ksnet
migration
##сти
##ervlet
scientists
corpus
vtable
##present
christopher
extortionists
bombing
bombard
pptx
pcs7
sinapsi
datasets
willingness
notoriously
loadlibraryw
agreeing
linxder
lady
ladder
cleverly
unfamil
aggregate
urgently
hauri
webshells
favorable
venom
venues
advocate
##1103
##rotik
protesters
regsubs
blown
unloading
mkdir
acknowledges
frustrating
disposable
subtracted
azdk
mergers
cripple
arrangement
literature
village
anticipate
##rocname
bucks
peripherals
ancillary
dexter
drewla
doku
discipline
dwsize
subsidiaries
kavkaz
vxworks
localsystem
ethiopian
bonus
rebuilding
aaaa
nfragent
monetize
restaurants
##built
nikkei
coercion
coercive
knocked
gadgets
jurisdict
ammyy
scholar
scholars
neighbors
cqc
##checker
printh
luckily
ohio
##millan
##upport
##heard
memorial
xmlhttprequest
coincidentally
tutorials
##oworks
unmanaged
garnered
compartmental
corrected
florida
henry
lpprocname
unknow
waterholing
ubiquitous
nemesis
wintab32
attendees
abbrevi
nonprofit
tajikistan
abdullah
bubb
lipovsky
byeby
phantom
disturbing
##azeera
troubleshoot
anchor
unrecogn
rascagneres
cstia
contempor
governing
ciscoworks
igfxtrayex
россии
inauguration
sterling
weinmann
laundering
discrepancies
246459
igfxext
yanukovych
serendipity
biblio
nslu
codoso
enthusi
accusations
outlining
privatememory
subordinate
googlecaches
carolina
geumseong
lightneasy
decentralized
boston
kipodtool
mivast
ndiskpro
riddled
raphael
sonicwall
vinself
xdoors
ymalr
zabbix
cohhoc
al9mood
endeav
commitcharge
neiderman
overarching
creamsicle
provincial
infiniband
build20111103
philadelphia
0x46445025
unfamiliar
jurisdictions
kipodtoolscby
5s
5x
693
7u
7x
ast
aided
bia
bail
bsa
berg
bamb
cac
cave
csp
cact
curity
cdr
cbr
cgm
dle
dow
dive
drast
eop
esa
fidd
fsl
fought
gc
gent
gary
g000
gdata
gfx
h0
hpp
hbo
hao
homes
hunter
huges
ipt
iced
jquery
krom
kak
lf
ldr
mate
mort
mull
mock
mfp
n3
nk
ner
nal
nst
ness
nid
nay
nist
nast
nix
nai
nah
nesh
ood
ocs
ols
p5
p6
pig
pings
pump
rug
ruse
rax
ripped
rasa
rtsp
sorted
sdl
saga
ted
tid
tile
tong
tons
tony
tdiscover
udb
vf
vant
vick
vex
vino
vstor
wsc
x1
xors
xtr
xbox
xdp
xhtml
yyyy
zc
zipped
год
ﬁnal
##oard
##overs
##tg
##ttp
##typ
##temp
##max
##aed
##a64
##a84
##aught
##e00
##e05
##rab
##rpt
##rare
##cn
##coun
##uated
##uzer
##ln
##linary
##lkk
##nis
##nem
##nose
##hj
##have
##b24
##j1
##jz
##job
##jobs
##fu
##fun
##fence
##f55
##f62
##ville
##yo
##yk
##3x
##313
##900
##160
##dam
##d19
##iam
##gas
##gown
##xa
##xware
##011
##pw
##pin
##zinski
##wk
##ть
##ту
##ем
##ого
##ар
##eri
##iner
##eded
##orse
ink
inex
##enner
##enek
##encoded
##itiously
anatom
anecd
##econ
##ecache
##ecomp
tough
##ano
##ania
##anos
##anik
##rov
##rown
##rofile
ofﬁ
##etm
##etc
coders
cobb
##reats
##lemar
##leaks
##uting
##lots
##ulse
beir
beware
beans
##urvey
##abs
##ab5
##abler
##igi
##uset
##amine
##amble
ont
forest
forres
##ad7
##adic
stun
stark
stumb
stokes
whe
whist
attr
aslas
asasm
##ifr
##ifind
##ptype
weaken
##imd
##imer
unwr
unreported
##chart
##aying
filet
##pported
##pponen
compose
complications
complicates
compliant
adsl
envelo
contrib
##see
sp6
spin
spree
chie
moham
supra
dear
deactiv
##ccc
commu
shl
shy
shred
res1
resurf
expenses
##keeper
appe
intact
intop
interst
scroll
##indetect
pok
podc
sop
systemtap
interior
##argeted
##endum
netware
informal
##sp1
informationization
##illion
0019
0034
0075
00000000
leash
leased
leht
##rub
##iphate
dishes
useragent
1059
##cook
emea
afraid
doxware
arn
arct
arcan
abuf
imped
conflu
confron
confisc
conficker
detach
##akin
##apix
housing
overrid
relent
stranger
docu
dock
folks
aga
aging
1129
##idebs
specic
threatintel
indi
denies
victim´s
invocations
outs
outer
desirable
newline
##logy
patience
dllhost
##artic
##opard
li2384
##ypass
assured
downgrade
defacing
1289
1291
httponly
##serve
feels
multil
afterward
modal
thematic
avenues
avira
privmsg
organi
workspace
##326
##322
delays
bother
geneva
##doo
monkey
##ratic
fled
0xb
0x05
0x07
getsystem
acm
acd
formula
stewart
generals
memcpy
simon
simulated
1776
preset
peals
retro
googleupdate
freet
1369
##ouf
1465
193
1995
1992
amr
sixt
ukrt
##reader
##readfile
companyxyz
win7
##ologically
ported
apc
miner
msf
collision
collapse
cleans
2500
irq
ironic
maz
maarten
plugindetect
investiga
##plan
##places
realwin
2414
2459
2451
2453
kernels
terrib
##context
ordering
associating
median
namespaces
cs6
csri
##1234
##1234567
centr
draws
##shutdown
duuzer
localization
designing
actionpack
harden
304
30th
purge
bloggers
potent
finder
231
##ceptions
0100
0117
0760
edits
revolved
brms
##racted
businessworks
hashtag
0318
0393
textarea
##602
recorder
clearer
##uchi
##screen
greek
##appanos
046
0486
0488
0489
0487
0409
338
3389
employers
justsystems
detectable
increments
schtasks
29th
##146
variously
everybody
builders
##afone
joining
suspend
artist
resolv
standpoint
3565
financing
sysbin
##162
filenet
lineage
cncs
redirections
virtio
shortcode
authenticating
##881
##prod
##prosim
argb
##slib
traded
##27b
##ucker
topology
##db00
##ometry
##89a
faculty
ntcache
europol
##672
##908
##905
##904
##405
##404
lowest
slip
mcutil
proposes
propfind
sequential
##aea
##23c
harak
calamine
dawn
auditor
pyramid
##222
masked
##952
csctx
horiz
condem
panama
overlord
debugged
##858
##855
economically
commenting
nullsoft
##ariat
5600
ministers
##desk
wildcard
approaching
##byt
hygi
hypponen
colum
7200
shader
secrecy
marketplaces
instructing
journalism
hanging
establishments
dwa
enforcing
sr3
penmairie
forwards
massively
jpin
##826402
costa
##etrical
mysqld
novor
idsdb00
sanrio
barrier
barcel
toohash
enhancing
leakedsource
keqiang
gh0strat
yahamam
smbv2
##updat
secretariat
embargo
structurally
predetermined
circumvention
##42f
catal
undated
fp6
fp6a
ldm
substation
cdot
##agrams
senft
##daq
##zza
holistic
feedparser
treats
rebooting
0156
phishlabs
btg
expectations
xlsm
qualys
incorporates
spotfire
hospitalgown
##common
blood
egroup
queues
contributes
isolating
##market
debenh
armour
floor
jointly
bitsadmin
grounds
bruteforce
tablets
lan2
mmc
charging
layouts
##holes
sapi
casinos
ranks
cvs
##flags
democrats
slowing
quota
assumes
hwi
##mouse
shadowtech
simplest
rotate
rotated
baloch
iceberg
vsd
pga
resembling
semicol
doctor
ignores
fighters
bern
pirates
explosion
meetingplace
momentum
0606
##urpose
profitable
jeopard
2152
jeno
transitioning
dispatching
symptom
sinkholing
roundcube
s7p
shoppers
szappanos
4117
flyer
zoxrpc
e0101
##runner
permalink
occupied
fooled
yielding
netease
inherit
tdrop
mesri
##polit
unsupported
4324
unfair
freshly
nuisance
repurpose
ironport
sgx
seasoned
##akernet
protestors
narrowly
a7rare
reminded
jiangmin
##queue
rental
reactions
appointed
kwic
puddle
##skaya
##ienabled
reinforce
resistance
fabricated
partnerships
torture
supplementary
preserving
experimenting
sistemi
gdgs
pilfer
sloppy
latvian
nigerian
##tttt
controversy
precautionary
modems
gorman
reproduce
polymorphed
disciplined
incentives
teachers
settlement
nasdaq
nazi
leapf
chanology
fluent
colonel
bulletproof
cumin
emotet
regulators
##67514
culmination
awarded
jmidebs
##fanview
godaddy
agnostic
showcase
sneakernet
##langu
20110407
inflicted
neighboring
dkim
litigation
recompiled
dvrs
vboxdrv
lexicon
jnz
qwinsta
##history
##ymbol
accumulated
##validation
disinfect
skinny
proposal
omnifind
persuade
bursts
habits
projekt
##special
dogcall
brigade
refineries
sherstuk
advancement
refugees
vocab
##pipe
##emotethread
traceroute
maidan
301548
miscreants
superiority
pandora
hanson
mucd
vodafone
##folders
conservative
respected
cafes
desperate
mscomctl
rigorous
surreptitiously
tremendous
bifrose
unstable
scattered
signiﬁcant
soltanik
transliterated
erroneous
extraordinary
foreseeable
esea
jbeap
##capture
unlawful
unearthed
chancellor
createremotethread
dllentrypoint
skypetm
debilitating
akamai
pediatrics
underestimated
inadequate
chamber
tristation
pertinent
invaluable
sourcecode
armageddon
undetectable
gamarue
regsubsdat
bambenek
hugesoft
kromtech
nesha
rasauto
tdiscoverer
vickery
vstor32
anatomy
##lemarat
beirut
forrester
aslaslkk
arcanum
confluence
li2384826402
ukrtelecom
hygiene
barcelona
egroupware
debenhams
semicolon
a7rarelemarat
0ch
0i64
2x
2fa
589
518
545
547
5444
635
634
7000
777
8s
981
ao
bw
bic
bith
bru
b64
cant
cord
curt
cfo
das
dies
dsl
dvd
downer
eﬀ
eur
eag
ecc
eager
fcc
fishing
f67514
glo
hz
hers
haz
hlv
i5
igor
iextension
i915
jac
jig
jvm
jih
jroc
jazeera
k3
kost
ln
lun
ltp
lull
ldf
lured
lending
mary
mib
mds
nstar
nintend
oﬀ
oom
ojpeg
pes
pdu
pens
pango
qb
rit
rok
rog
sj
sage
sights
sull
sinc
sdc
tu
tac
tul
tps
tawn
u3d
vij
vinsula
wt
w0
wab
wps
waf
wished
wimm
x32
xpl
xcp
xwiki
yl
yas
yash
yui
zr
z1
zcm
zoom
во
##sat
##t3
##tank
##mir
##mate
##mtp
##aie
##a50
##eo
##ews
##egr
##e35
##rates
##rings
##c18
##cada
##cgi
##c76
##800
##824
##uang
##uffer
##nah
##hob
##hous
##hire
##bast
##bian
##binary
##jx
##jour
##f64
##f84
##vents
##vise
##vous
##views
##ylv
##319
##9h
##1h
##1r1
##dent
##done
##ddf
##d29
##d77
##d9a
##gp
##gw
##gic
##gel
##gie
##gov
##ku
##kd
##k0
##2exe
##0s
##0n
##0v
##7h
##pu
##ped
##pwn
##pkt
##zes
##wu
##w3
##q3
##q1
##из
##ів
##ід
##ьк
##от
##об
##ори
##ли
##ية
##ᅡᆫ
##ﬃce
thomp
thouf
theform
##atoc
##esc
##esign
inode
inhib
##ec1
##ecart
to691
##icron
##rocess
##iscent
oft
##entr
##accept
##etia
##etos
coo
cos
cous
##reza
##stal
##mpl
uss
reiter
reorgan
2023
##urry
##urgh
conime
##abd
##abase
isightp
##oth
##ambo
sta
stagger
##ido
##elon
prod
##olar
##olent
##emade
##imore
uniqu
unbe
undp
uninter
unmas
unlicens
##chr
comac
comcast
filelist
comply
adc
adob
adober
adults
contends
##dea
##istage
##sein
itu
notation
spor
spied
spik
mosk
succ
vulnd
##perf
dext
dealt
##fty
residence
resided
##berish
##ugger
cavs
webroot
##orset
##ivan
##kex
seq
sebast
paris
parast
soes
intertw
netart
netflow
accusing
##spin
##ups
incurs
saakash
0024
0074
000000
upatre
dise
disreg
user32
1064
1019
1050
##thard
##achuset
emm
cyworld
pligg
goform
arcs
abu
implying
##aky
##apr
##apro
bashar
regulated
##ensity
##ishable
##ubles
##neth
fold
agp
linh
##oku
1125
microblog
evo
evron
pricing
prsettings
prenner
denotes
##008
hefty
perforce
perceptions
firing
versa
newct
##logical
provisions
##artners
li32
##xtract
ipid
sitebuilder
defici
infop
params
paramount
1286
1287
1290
pubmatic
quartz
encase
clay
callme
multistage
mods
modifier
passenger
passengers
##325
advent
##ffc
readwrite
gen1
subprocess
ourselves
flush
opennet
0xa
0xaf
0x80
0x17
0x34
0x21
0x31
0x66
0x09
0x91
0xa0
0x86f1
getlasterror
acid
acelp
steel
##wealth
##bose
imf
fin10
finances
##locity
suppress
packaging
counsel
1794
presume
beck
customization
peek
retention
##ondition
initv
mari
verbose
1310
1347
18th
notebook
1444
1985
1983
1953
amended
##648
##642
smoking
winapi
apptr
descr
viral
virgin
explores
certiﬁc
msupdate
blames
##encer
longest
irreg
irfanview
worris
transformed
transcripts
##pla
##152
2460
2455
2452
2407
kernelbot
commonwealth
stateful
libupnp
autos
searchable
##129
referendum
designation
continual
harddisk
uploadify
##clusive
findfirst
brew
checkins
guided
0115
0169
##ancial
demonstrations
labour
0761
0766
0762
revoke
brut
025
02hp
0319
0317
0335
compilers
baseband
5054
sitescope
gree
grep
0400
0491
330
##288
##287
untargeted
zeroed
0621
##params
incidental
geography
geometry
2900
swath
##ikishvili
launchd
##140
strategist
hereafter
##essionid
packetheader
##af0
##aflicker
joom
marche
blackouts
blacklists
4500
##d50
resolvers
adverse
internals
0588
0589
261
langstring
0009
##iverse
mobiles
intelsat
sysadmin
##801
eventtarget
eventargument
dymal
cnt
cryptograph
cryptrawpacket
protective
failsafe
mobileorder
virusbulletin
##program
##profil
ccm
ccommand
skt
sketch
skirt
##258
hackingteam
342
3485
topical
taskkill
refix
virtualprotect
dependence
##azy
##azing
##507
##873
##879
370
##373
##372
behaves
euros
##246
##676
4792
leakbase
##apsed
cpg
##979
roho
slcc2
policymakers
mci
tune
466
##999
mitoz
##445
calend
dao
audited
##26c
##268
##985
lottery
falun
##bitcoin
reconn
cscta
##omponent
oldbait
adviser
telekom
telemat
##myong
ec2
ecatch
##umeric
##842
optic
streets
playlist
vmx
annoy
planes
planners
iranians
##bias
torr
career
submitt
instantiating
circle
diam
##707
##tunate
41c
##931
##9335
translating
killer
sideload
booted
bootloader
kindly
##fca
visualize
##31a
sr5
sr2
srand
##onica
massachuset
greatfire
shuts
weaker
arabs
estonians
elevating
##eb0
##instruction
758
keir
altools
midnight
editors
talented
gifts
faith
splash
ideals
##buff
nsf
##08b
widgets
recognise
##downloader
dubious
roboc
ascb
mandate
hermes
trees
rendez
factories
##decode
igmp
cmnc
cmwhite
dcleaks
serialization
expectation
dispersed
unfortunate
flower
risky
faketc
republican
mpg
mp2
##processes
samra
alien
cros
##cd7
declare
spearphish
##rdn
lockdown
##portal
rawpos
##cutter
##fa0
tomatoc
##internet
photosmart
tioned
paralyz
watched
ncw
xtiger
licence
swiftly
taint
fastest
iterative
##cuit
relayed
knight
##flag
fetchmail
fuzz
assemble
violate
violated
violating
iexplorer
maketext
facilitator
cellphone
##a2b
petition
tender
##f5e
ramifications
prolonged
async
robotics
mental
springsource
penetrations
footholds
merry
explanatory
stubs
assignments
0605
0609
cultiv
angle
0x0c
fatboy
ovf
diagnose
prominence
geopolit
institutional
featuring
signaled
innovations
milkm
recruits
gemcutter
instruments
netsk
obscurity
arriving
##dataserver
##import
combatants
colleague
neutrino
candor
sympath
0320
distinguished
rigs
fashioned
notepads
##erva
vtiger
##oshka
prefixes
disappoint
pivoted
borough
concatenation
concatenating
hinting
mahdi
bizarre
dnlist
##packetheader
refusal
kenneth
##gener
altiris
openttd
mexican
##нои
##ное
fleaflicker
melikishvili
forbidden
haar
abandon
proliferated
venable
rewrites
rewritten
gulshan
blacklisted
disseminating
disseminated
adjusting
kasai
3893
baltimore
admits
unloads
3174
hmac
zaabi
ashx
ashley
rdar
as49335
tying
clarity
clarify
phrases
cubemail
munin
crippled
prioritization
inspector
##docs
stdin
neutralize
thomson
onsubmit
inconclusive
drugs
4878
pagenum
stuffing
activemq
legislative
3129
romantic
lurk0
a€˜
rpcp
william
cscsz
helixplayer
ccdcoe
0x40u
musiclogs
stylesheets
ka4a82
ridge
gorilla
gigabit
jailbreak
bombs
dmitri
joseph
reservation
necurs
zombies
bureauc
ambiguity
dormann
jinnah
nazario
cernet2
grammatical
snooping
scrambling
judgments
wuhan
##2c17b
supreme
trampolines
ferry
hindering
unmount
shaping
hierarchical
madison
##topic
##ект
volunteers
jmicron
ossetia
nikol
vetted
inflict
sentinelone
breadcrumbs
56743
gadget
jurisdiction
dismissed
voluntarily
ctrl
fighthard
santa
##www
0x22ff
eradication
coincidental
contradict
dccp
fantastic
enlisted
crystal
msvct
granularity
kett
seventh
segregation
j2ee
qpid
trilogy
disagreements
armenia
jeffrey
##ации
sudan
datastore
interrogation
intermittently
fltmgr
##global
inevit
unlocking
sysprep
##apolis
intelliforms
warriors
mothership
unintentionally
##sobject
0x4550
accommodate
abundance
deposit
undermining
msvcr71
aryaie
gibberish
macewan
##mgmt
##friends
afforded
noisy
surgical
axis2
skewed
rabbit
wpa2
reaper
spiegel
multibyte
mafia
couponruc
shipbuilders
belligerents
elliptic
kwangmyong
1007b5ca
renegotiation
reminiscent
plgus
##ansferwiz
defiantmarketing
minifilter
adversarial
mckune
robohelp
squeeze
unknowingly
contemporary
cacls
cacti
fiddler
icedtea
nidiran
piggy
vantage
pokemon
podcast
confiscated
##articles
mazagon
harak1r1
columns
bithumb
iextensionvalidation
jihad
jrockit
nintendo
pensuse
sullivan
tawnya
wimmie
##journal
thompson
thoufique
isightpartners
unbeknown
unlicensed
vulndisco
parastoo
saakashvili
arcsight
prennera
deficiencies
0x86f186f1
acelpvc
apptransferwiz
irregular
worrisome
findfirstfile
dymalloy
rohozinski
mitozhan
telematiki
massachusetts
rendezvous
milkmaid
ka4a8213
aryaieiran
1mission
40000
560
534
540
596
711
770
9x
911
a20
a21
bag
bout
bpm
cj
ces
cel
cated
cure
clement
cps
cname
cxx
cdd
cgl
cienabled
dic
eh
ero
eve
epr
fg
fame
fied
fict
fata
fdisk
foss
fshutdown
gy
gant
gav
giants
gdk
gau
guns
hc
hl
hg
hil
hib
hud
hype
hetz
icc
iap
i386
jake
jsc
kc
kd
kun
kam
kay
kual
kdd
kafe
lv
lec
lion
lol
lem
lms
lph
lanc
lump
mab
mpt
mage
mey
mian
mifr
nur
nus
nse
nord
nong
niques
nsm
nrv
oﬃce
pints
pdt
q2
qiang
rl
rsp
ride
rally
rays
rsh
rings
riff
rnd
ripper
s6
s1
sse
sld
sures
saint
sizable
tic
tary
tear
tended
tnk
tspy
toned
ud
uiga
vib
vmin
vml
vms
vik
wow
wand
ye
zed
zbot
киб
ﻓﻲ
##sene
##tc
##tu
##tx
##tec
##tip
##tling
##tale
##trator
##turi
##mce
##mos
##aus
##ele
##ept
##rag
##cab
##cip
##cli
##cak
##c88
##c90
##833
##lb
##lon
##lure
##lite
##lide
##lman
##nology
##hw
##hoo
##bn
##bow
##blow
##bell
##bms
##b17
##b23
##b98
##blick
##jk
##fm
##fn
##fh
##f96
##f45
##f47
##f92
##f49
##f52
##finder
##vn
##viz
##vgraph
##vchenko
##yg
##ying
##522
##3u
##335
##987
##936
##d27
##dqa
##dorf
##iu
##iations
##iently
##gartner
##kl
##koo
##060
##7d
##700
##726
##p3
##4c
##486
##4000
##zero
##ион
##ым
##ас
##аз
##ня
##ут
##уж
##за
##eres
throws
##atalog
##orcal
##orrow
##enote
##itle
##itations
##aring
##ec5
##ec3
##ecre
##ec2c17b
##alek
tosh
touris
tobias
##icopt
##icomponent
##inger
##roth
##rofers
##ila
##isp
##iser
##isite
##isvc
##aca
##eters
##etria
coher
coins
copper
coerce
##asi
##asia
##asper
##real
##struction
##leus
##utan
##uthern
##lydbg
relie
20h
2024
2022
2077
2094
2069
2049
##urb
##urve
##uricomponent
isone
##unpack
##igo
##usd
onaps
forem
forks
orum
##riz
##ad3
##ader
##adsl
##essystem
whome
##ctls
##idate
##idency
##idraw
##else
asus
alpc
##olit
##olink
weib
weird
##iml
##imon
##omo
withdra
withheld
byod
unin
unver
unctions
unification
unzip
unheard
unaccept
##chip
oth
comserver
filetype
filemanager
filessystem
compo
adol
##istingu
##andr
##estore
##estart
##estone
chea
moore
mofa
defer
##ftable
comms
sytes
##sover
##sound
##souri
shp
shik
resets
resurg
##ugin
cake
whichever
crises
crafts
crazy
trinity
##ssp
scary
scaff
sev
seag
soust
southern
louis
interoper
##endent
netui
netfilter
##due
informat
##spic
##sport
pho
phoning
phptype
##up3
##actors
0077
0078
##ighth
##umi
leas
lease
##rue
##iproxy
disgr
user1
userpassword
10h
##through
cymm
afd
##icture
##asting
htaccess
recap
recyc
idm
idat
improb
cannon
confid
deters
detri
##aku
##aki
basics
filescommon
cyberx
regener
regret
##enson
##ensively
reluct
strt
docker
##answ
##anserver
##echat
##echange
allrec
priox
backward
1110
1117
1190
micrologix
microphones
ifobs
##oser
##oskrnl
threatlab
prav
indistingu
##tpoint
##005
##003
hezb
heimd
dominate
fiber
pervas
tea
fired
runpe
rundl
denials
outfile
outreach
loggers
logoff
deser
toolbox
locker
campaigners
technician
valley
howitzer
prepend
defex
hostlist
seth
settle
setwindow
setgid
1284
quiz
quasar
exe1
clim
clause
corner
avs
avl
avamar
avengine
workday
workmain
##329
subr
subdiv
subtit
monarch
signifies
multipurpose
organizer
string1
openldap
0xcc
0x15
0x44
0x56
0xaa
0x3b
getcurrent
handset
##calypt
consona
consoles
wraps
hadn
simulations
authplay
1750
presidency
googles
googling
##issen
lax
##nsylv
poster
marsch
verifier
crashed
crashing
1823
demux
demographic
redef
redmond
successes
urlmon
##icki
1960
1982
amet
legspin
macs
macfog
macarth
smi
counters
intezer
shell32
shellcodes
winupdate
winxp
lookby
capit
oscar
msd
ms12
msme
blends
blending
blurring
25th
2551
cloak
irene
discont
discrete
distant
pluggable
realloc
realise
realty
ukraines
2415
2425
2445
originator
##const
libxslt
libicki
erased
buffering
clientx
viewers
viewvc
initializing
socio
2210
2212
2211
2202
2209
##iddb
##126
patcher
solving
soliddb
drake
drilling
##share
insurg
duy
localapp
2100
2119
helicopt
305
##respect
shark
takeaways
freeze
wwhelp
blogging
potus
createobject
breath
2360
guy
0188
0138
##ategory
worldnews
0780
0763
revamp
##awling
281
2890
##11110
0232
##peed
##peparse
##tening
##6060
5060
faction
newsletter
flashupdate
chromebook
greedy
##appings
0495
0485
0493
0492
purport
showimg
0616
0634
0666
incidentally
authoritative
gril
grace
socialup
##148
noni
nonvi
jovgraph
blackgear
artists
artturi
convol
deterrent
0555
0593
447
ibrowser
265
nationalistic
##867
aspnet
salaries
##804
##165
eventlog
409
401
dyreza
myd
myspace
authenticates
##aha
##ahidi
##884
discloses
0900
skb
globalization
latitude
quickbooks
quickpeparse
singular
##350
##34b
threading
cyberspy
3619
3658
##aza
augment
2007b
##50a
##504
facet
##876
ntv
ntoskrnl
##launch
##4132
rcv
4710
4786
cp09
slim
slpar
ukrainians
mcv
mcmillan
10015
10077
4681
46824
sequentially
volum
##992
harvey
##44c
##269
##982
cmdcapture
pylot
py2exe
##658
palm
pale
cooki
masse
masks
601
##958
cscte
pane
debuggers
##be5
velocity
sunorcal
##guest
opting
tmpl
annually
planet
jsunpack
movdqa
totaling
greenbug
circuits
broadcom
occurrences
wield
##ofex
parsers
##708
missouri
##hoit
4100
4187
ollydbg
##948
##949
adaptation
adaptability
##warn
ftpd
staffed
schematics
dwm
aesni
srs
pennsylv
##feab
terminators
terminology
##bb6
counteract
allocations
allocating
situated
ioctls
fulfill
shevchenko
novice
hku
smartcam
travlman
nao
sanriot
barts
barrage
liveupdate
seriousness
ie8
smbd
midst
midland
##brage
wannacrypt
##health
secretive
politnews
chron
##minghua
unpre
structural
idef
ideological
competent
superhard
nsv
nsiproxy
ajp
taxes
plainly
##0000000
mena
menace
dubai
announce
tunnelid
tunnelblick
mandarin
pushes
slew
foundationssl
nucleus
cmc
phishme
frontend
triang
positioning
modernize
onesize
strives
tinytyp
wpf
ocsp
guards
incorporating
##offs
##portion
dozer
100028
infiltrator
completes
evolutionary
##fa5
tomorrow
classifieds
severely
##intercept
rubin
rubles
##b5f
extranet
curve
household
eucalypt
unwilling
siphon
coinciding
0x1c
0x00000
discourse
##helper
##enew
##enews
##2008
principes
tgs
tgie
8dv
chapters
shadowy
facilitating
balances
ramnit
vastly
##boyle
pgv
pgw
pricewater
hyphen
sniffers
seminar
umbrage
ignor
liberal
cashout
touches
assigning
0601
battles
manuals
parliamentarian
beside
##firewall
michelle
islamist
possessing
prominently
skyeye
grabnew
ticketfly
nntp
negatively
await
bbcode
##limit
speeds
mili
gemina
guesses
hypothesize
0xc3
##canner
progressed
progression
netsat
pkinit
##b6c0
fortify
0x4c
biotech
qqmgr
positively
surveyed
iota
vitaly
delayed
asymmetrical
floods
manifested
zenofex
lawsuits
mounts
gs001
encodeuricomponent
registrars
applicability
luckymouse
concealed
##b2c
stemmed
nedi
pivotx
britishnews
0120
bombings
chunked
proficiency
sinister
2122
unreleased
complained
datasize
snowman
torrentlocker
tdos
bhutan
dnsp
dental
rhino
##ности
atoms
delimited
richards
sanitized
nnmrpt
2607
pickle
delegate
boleto
tiered
fortunate
autofill
susan
##rotate
blacklisting
adjusted
congured
agendas
4191
disassembler
wangminghua
cscue3
cscue4
fqdn
ashld
trolls
##registry
cuckoo
rdx
wales
retaining
matrixmain
tyler
cyberwarfare
minglu
wilson
wilhoit
deems
mdx
##olicy
parkour
levy
creativity
triple
mcclure
inferences
scouting
step7prosim
diligent
literal
xiao
commodities
tortured
##widget
ﬁndings
accelerate
romang
dvb
##freecenter
arcserve
megabytes
paints
votes
marcus
##ajax
abstraction
mikrotik
thirty
plagued
teaching
bradley
bradstreet
snapshots
athletics
fnmatch
jinping
perpetrate
jaime
plotting
wtr4132
patrons
buckets
fluct
misspelled
dxf
recalled
imitating
ceasefire
monetization
punish
syndicates
appealing
finishes
predecessors
bmkq
reprogramming
cctld
recycle
incrementing
igssdataserver
0rc2
##brokers
monikers
temperature
hurix
andrei
##theway
fronting
disclaimer
revisit
flict
flickr
zapoy
##million
##color
complemented
mozhe
harvests
dccc
eatuo
tutorial
##titan
exﬁltrated
##rimony
unmanned
implicitly
msvcp
endorsed
escaped
escaping
biscuit
kettle
zyxel
shooting
asserts
asserted
clashes
laoscript
ernment
derivation
derivative
##cheduler
hawkeye
wk1888
abnormal
prestig
armenian
fujian
tfimbg
kidnappings
dgfi
hidrofers
xmmword
contingency
contagiodump
podesta
recreate
1002ac
passthrough
kiosk
##requests
maneuvers
outsourced
ﬁngerprinting
frozen
fibre
kurd
compensation
cycldek
cyberthreats
1970s
recycler
cwsandbox
jewish
catastrophic
echelon
hplist
riot
##ispyware
dr0pper
build1011110
8759
ralrab
##enumerate
colour
ushahidi
##embedded
disproportion
imprisoned
wincor
##shopp
sitemap
baumgartner
gesture
mumbai
tsai
forcibly
chrysene
datatraveler
remnants
mycare2x
nteps32
roarur
softswitch
ksnetadsl
ladyboyle
dokuwiki
troubleshooting
unrecognized
geumseong121
drastically
nk2
nayana
rugged
ofﬁce
whistle
chiefs
horizons
symptoms
##language
aslaslkk2
gloss
tulip
sebastian
mariadb
torrents
crossover
netskope
fictitious
fatah
hetzner
iapfreecenter
kcna
kuala
kafeine
lumpur
mabna
кибер
##cakiller
tourisme
onapsis
foremost
whomever
withdrawn
unacceptable
filessystemole
cheaper
shikata
soustab
cymmetria
recycled
improbable
allrecipes
prioxer
threatlabz
indistinguishable
hezbollah
heimdal
rundl132
defexpo
marschalek
macarthur
lookbytheway
discontin
localappdata
nonviolent
pennsylvania
sanriotown
tinytyphon
eucalyptus
nnmrptconfig
wangminghua6
hidrofersa
build1011110331
0m
2m
2lnkn
4s
4q14
529
6p
676
811
819
aus
aip
a28
a56
aentr
bac
bri
bry
benc
bstr
bstream
bxml2
cu
cain
cates
casp
cpe
cdp
cargo
dmp
dad
died
dition
dwn
dmd
ddb
dany
dvm
dowork
dorset
eid
eip
fy
fur
fli
fff
fname
fitness
fnetwork
ffff
gab
gcc
gall
grat
geek
hcc
hors
hps
hurt
hui
huff
i6
iom
iger
ical
iiss
jc
jers
jess
jce
jaff
jext
jamming
kv
kg
k7
kom
kdb
kcmd
kids
kaj
kumar
lh
lul
lam
lter
lend
luring
laced
lasts
l32e
l35e
mnet
mcp
mplayer
mha
nl
nest
npr
nuke
nfo
nlm
nvd
nadi
oy
oot
oid
odf
pif
pact
pcp
psm
petr
pfd
picks
pdns
qa
q4
qcp
qcd
r6
rx
rag
rij
rdn
ryz
rica
roster
sib
seng
ssm
sinit
t1
tms
tense
tbl
uis
vss
vds
vouch
vandal
vftable
wy
wwe
wsa
wput
wmm
walt
wvc
wood
wdm
wcm
wreq
xy
xd
xens
x0a
yar
yum
yass
yok
yca
zp
zik
zmail
zfs
zucker
вы
кр
па
сек
фед
اال
™s
ﬁx
##o0
##ohost
##sx
##s2
##sion
##sis
##section
##s50
##tn
##tf
##tim
##tos
##mn
##mic
##mates
##mob
##mapping
##a€
##a86
##a77
##eh
##ez
##e15
##e20
##e9b
##rin
##rak
##russ
##random
##cv
##cx
##cot
##cuss
##c20
##c34
##c29
##c46
##casts
##816
##uay
##lan
##late
##live
##lund
##nmp
##nap
##nub
##nav
##nod
##n32
##nov
##nelling
##het
##hem
##hru
##home
##hui
##hlp
##happy
##bon
##bits
##b89
##b37
##bef
##b47
##jul
##fail
##fall
##f85
##f54
##vj
##ymp
##5proxy
##365
##611
##624
##928
##1101
##dos
##dge
##d70
##ika
##xis
##kby
##klm
##ksey
##2s
##2str
##2png
##7d2
##p2
##pan
##pet
##pct
##pcp
##p21
##4t
##wo
##wp
##qrst
##ار
##ات
##ськ
##те
##ес
##еж
##ок
##ван
##да
##ين
##↓j
##чен
##ᅵᆯ
##ernal
##erra
thumbs
theguard
##iny
##inct
##inator
##onk
##atad
##atov
##edcb
##esese
##orre
##oria
##orian
##orod
##oradb
ine
ingr
inoper
##enabled
##arka
##arah
ano
##ecol
##ecall
##ecorder
##alo
##ales
##alite
##alys
togg
##icemail
##ande
##anumeric
##ington
##rols
##ilong
##iscover
##isabled
andy
##etal
##etry
##ettered
coach
coined
coda
cohes
##asies
##ersion
##vell
##stac
##leum
##lease
##leaf
##mp3
##utation
##loqu
##ulary
usability
rework
reint
rebel
rebuilt
bex
beer
belog
2032
2030
2047
2021
20296
convey
##abo
##ab1
ism
isak
##uni
exagger
atr
ated
atmail
atutor
##usage
##verts
##amos
onenote
ford
##rimin
##rived
##ad9
##ad1
##ad4
##adapt
##owr
##essid
sts
stomp
stdc
whol
##irs
##irc
##eli
attending
asic
prolog
##agement
##terian
##olas
##olete
##emin
##emma
wear
wekby
##omi
##omatic
##ateurs
une
unco
unres
unsc
unboot
unhand
unfol
##chu
##chw
##chem
ott
##ppel
##pport
adore
adair
enroll
##depend
##deleg
##andi
##android
male
malik
malump
itw
noticing
sp7
sp11
spools
moxa
sued
##hero
deloit
degr
comma
##soper
shore
shout
shdoc
resin
resorting
resn32
expire
webm
webos
webmi
webadv
trash
traged
traction
##sson
##sservice
intends
scap
scour
scrub
sei
seiz
seats
pops
poised
popped
poker
bitlocker
##allero
parking
##igning
loyal
interfer
targetted
##enduser
netio
netmgr
informix
##spe
##spam
##spatial
phd
##upid
##upgrade
##activity
saff
0011
##izh
##izers
##iba
##ibbean
ley
obstac
##owsky
securitymanager
securityweek
userinit
##loaddriver
##achine
##coff
windbg
embr
afow
placements
goose
##asser
##assword
grob
grounded
##aste
abel
iden
imple
implication
importer
cancer
##apher
##aplug
basing
basij
cybercal
cybergate
##eyah
hob
housec
##ensitive
overhead
##ubes
straf
doc6
oneworld
##ansky
aged
ages
##ava
alluded
backdrop
11a
1184
inclined
inclusive
directx
evan
evaded
ifc
##odplug
##osity
##osem
prs
pron
prax
##009
heat
##iewe
##gra
phps
phpk
phpinfo
phpgw
someup
perch
keying
keywork
keyctl
fires
invitations
runcmd
outed
patent
controlset
follower
dllname
##ources
##intosh
##entials
technicians
##ksandr
preprocessor
##ussed
##ussels
defib
defra
infile
updmanager
1225
1227
1296
1285
1202
1256
httpbrowser
ops
opend
pubs
pubnub
offense
nameerror
installment
researches
clays
clones
firstname
apt19
corentry
cornish
buff
modest
modpro
avah
passcv
founding
workp
workplace
##32f
##323
configura
botmasters
genesis
subc
subrout
subverted
subfolders
extorted
organizing
string2
ours
##prv
flav
flights
devoted
metro
meters
metrop
metalink
meticulous
0xab
0x13
0x37
0x26
0x95
0x61
0x78
0x06
getfield
ac700
handy
##obit
forming
##webc
##cale
ime
imam
franch
observes
consulate
computerworld
passwordrecover
##ldr
loadembedded
sendfile
authip
1769
presently
presby
mainst
mega
ppmd
retire
entrust
lamp
lazy
engages
programmes
158
1535
1569
freer
marion
javaplug
1315
1308
13123
1800
connectback
1635
1655
redmine
successor
sourcing
urlencoded
1911
1986
1988
1940
1918
1994
1959
amf
amster
amnest
macintosh
investintech
smf
smooth
countlist
starters
winpcap
capa
##ee5
##ee0
osversion
oscomm
osclass
certutil
msl
msacm
blat
blade
blugger
collab
longwatch
2546
irda
transmissions
discreet
maze
districts
##10a
##10d
##1024
warship
warsaw
antispyware
wherein
elusive
##strings
##wnd
##159
2424
commonality
##container
utilit
libv
libxml2
liboradb
erf
erp
charities
wordfence
initials
empow
autop
earning
2286
2276
mailer
mailguard
##imeout
csd
cs4
csis
csdn
carriers
caribbean
sp25
heads
heading
headway
dra
lastname
##shield
insecurity
locales
2137
browsed
browses
helpl
##results
induce
takeaway
wwhi
blogged
3280
stage2
275
2372
certifications
checkmark
##rorat
0112
0119
officeupdate
esolar
edt
revents
revokes
integrax
index2
braking
brussels
pax
##1100
0296
0208
classed
##60e
##6095
clearance
routable
##uchit
newscaster
powerpc
fullword
ciscoapi
##apport
##itsu
justify
justification
untold
dnscalc
zeroes
0615
0612
0614
0625
0624
0618
0622
##pared
grass
gracs
prima
primer
primitive
primaver
helpfully
swat
swip
##iko
launcherex
clouds
cloudlook
cloudatlas
tlv
##af5
secureandroid
sizeof
automates
##209
##204
blackout
45000
##d5f
##d55
tcpip
051
0515
0586
0590
0595
0592
0591
0507
populations
262
2632
0005
0006
0007
nationalism
snv
sni
snare
snorre
##866
3509
##305
intricate
dot1x
salman
##keyboard
##803
eventual
destinations
utilis
characterised
##196
##1938
virtue
limnell
authenticode
##172
##177
##882
092
skipped
fourteen
3402
##275
##279
##271
##358
##342
##340
##dba
randomdomain
3632
3610
3628
3622
3621
##899
##891
boasts
##870
selma
generalized
hp3
ntg
nt4
xpi
writeup
writeprocess
##379
corebot
##efb
##67e
4711
##906
##33f
preventive
##408
##40b
puter
roubles
##tele
combating
natanz
80h
tunis
tunnelling
replacements
ff05
propose
volrec
calm
##26b
letting
lethal
##eploy
rtable
identifiant
teledy
waterman
unit™
chained
chaining
understandably
##657
##bcbc
magn
magick
##filea
interactively
comparative
604
avoidance
##969
##dsrv
##854
evolutions
##459
telef
##inci
ecb
##guan
##guid
optical
##apanov
operationalized
playback
screening
advertiser
##authentic
meanings
4800
indianapolis
flagship
circa
diy
piped
colloqu
anonymize
anonymization
5200
necessity
misch
fedex
loggedin
##0219
5110
5115
sock5proxy
707
enforces
recoverable
bennett
mutually
##92cc
##dc42f
myself
cti
ctms
wipo
##nt1
opensso
##aitai
##oonservices
##untled
##etrack
mysqlnd
mysqldump
physicaldrive
xxxxx
##791
bullets
anonymously
voicemail
normalized
normalization
dealer
questioning
barriers
keisha
corrector
ie9
pakhar
yahoy
midlands
illustrative
manufacture
##ndael
mrs
gif2png
modeling
preparations
pivotal
superglobal
calculator
landmark
bundlers
predator
style3
owed
radical
eyepy
blueprints
inspir
inspects
fp13
glue
architectural
decompiler
##00001
substances
cdns
badcyber
ica
icann
icao
icrc
##da5
##da9
flexlogix
promising
promises
herald
herjav
treating
pretext
pretended
servehttp
noticeably
igd
phishes
phishtank
llp
telltale
ep26
briefings
stripping
flowing
tinymce
guiding
wpad
societies
caballero
sami
shims
influencing
qualitative
agrees
scarce
commissions
cscuf
corrupting
quebec
contribution
orchestration
##contact
gauge
armitage
scamming
gnash
curves
0x5c
0x5d
mmio
##fd3
lucent
austal
casino
iterated
##archive
##flash
##monitor
recoup
homemade
##pluggable
slowdri
soapaction
principals
##disks
suffering
davinci
evilpost
restarting
shadowbrokers
rotor
uppet
uninstallation
balancing
moments
rsync
##fields
wsn
burden
umid
##ethis
pirp
geospatial
ole2
##delete
psyop
summed
evaluates
##handsh
acknowledging
hypertext
hypercall
##c5e
mixing
dosdevices
khalid
ovens
diagnos
##9a3
jean
reputational
grabbed
segmented
procurve
msndsrv
chopstring
minimally
minimise
awcm
rvs
strengthens
premera
census
##amlive
##f4f
0xc8
bmodplug
partnered
indicted
pk2
pk39
perlroth
doubtful
0x400
handsets
##f9f
programmatic
programmatically
1328
1329
1327
biomet
occasional
pvid
candle
gamers
capitalize
boyarka
lznt1
zeit
scientist
##printf
mountpoint
planting
flynn
elderly
0644
##liner
##linux
ambient
xsid
fifty
##ери
b2b
##b2e
01234567
tackers
tackle
tackling
thankfully
fooling
securite
broadcasting
2124
##wartz
sudoers
expansive
interrupts
optimize
promotes
pentesting
vanity
mbcheck
mesa
factorytalk
unfettered
freshdns
golf
haul
nuance
skelky
freedoms
3102
boletos
picasa
cheat
distinguishable
##rotect
pertains
mirroring
4192
4190
pwned
prisoners
##obfuscated
fragmentation
oxwall
##rawinput
mediac
petroleum
acknowledgment
frustration
walking
##1b64
constrained
ellen
rejection
clarke
clarified
16160
ewp
ihu
rentals
cogn
subscriptions
prosecuted
munich
pudn
vigilance
resistant
infosecurity
arranged
albums
corroborating
substantiate
sdq
##invoice
preserved
nvidrv
hancitor
kilim
skeeyah
receipts
mantra
fundamentally
miniupnp
5195
arcade
deduction
licensed
4306
foomatic
tesco
##filenamea
rocks
advertise
mathematics
h264
sxloc
crawl
huaying
##hyup
conferencing
123456
gettemp
4344
exempt
##attribute
##cfg32
kavsky
vxd
008b3
ntssrv
ntshru
injury
rebels
relocate
healey
imitate
3906
rampage
##topx
spirit
bitcoing
neglect
culminating
nagios
##virtual
stretching
absentia
hipaa
oem7a
tilde
tikiwiki
vacation
xnview
##лав
1980s
merchantability
aleksey
ssss
reassure
stresses
##hhhhhhhh
neighbours
diagnosticsservice
cassette
towns
intimidate
processpacketex
jnlp
dojox
inflate
rodrig
razz
##ных
exploite
1030522
proposals
pupyrat
bilateral
tangible
whmhl
j2k
mojave
obsolete
paigns
xmm0
##injector
champions
intuitive
intermittent
discarded
reinforcing
fiscal
foswiki
foscam
lwp
maneuver
outsourcing
fratric
fraternal
gowidget
gssapi
kali
mnkit
##buddy
staprun
proxysg
goldeneye
scraped
dismantling
8443
hvac
sesesese
##details
1950s
1007b63c
auktions
2013−03−25
kashmir
rivals
usta
##ebugger
deanonym
scoping
prevailing
ambitious
treasury
focal
hesitate
kawarah
unoffic
quarantine
politicization
sadly
repercuss
unregistered
cherapanov
##performance
craig
saaowner
memcached
entreprene
transcendent
insulting
argentina
dwbytesread
beneficiary
abbreviated
bibliography
caveat
muller
nahoonservices
ooda
olson
vexing
ontario
stumbled
wheel
mohammed
lehtio
##cookie
retrospect
centrally
armoured
##politik
vocabulary
##pkttype
staggering
spikes
intertwined
infopath
calendars
paralyzed
rpcpro
kettell
inevitably
piggyback
boutique
fosscam
kddisabled
lancaster
nonghyup
pintsized
tonedeaf
vminst
coherent
disgruntled
confidently
pervasive
grilth
convoluted
unprepared
idefense
gs00100
cscue460
whistleblow
glossary
caspian
fnetworkenabled
jersey
jextensions
kcmddc42f
nadiya
rijndael
ryzen
xenserver
zikula
zuckerberg
федер
##qrstu
##orodskaya
##alysis
reintrodu
belogorodskaya
isakmp
stdcall
unresolved
unbootable
unhandled
malumpos
spoolsv
deloitte
tragedy
seizure
cybercaliphate
housecall
strafach
subroutines
passwordrecovered
loadembeddedimage
presbyterian
1312312
amsterdam
amnesty
oscommerce
utilitarian
wwhimpl
integraxor
primavera
teledyne
pakharenko
yahoyah
eyepyramid
herjavec
slowdrift
diagnosis
ntshrui
repercussions
kddisabledebugger
1lib
1mb
2127
433
544
5loyd
6x
667
633
7t
725
7601
7r7
818
865
9am
988
921
905
aﬀ
a11
a67
a22
a45
aston
brib
brain
bible
bfs
b9a3
cite
cbs
cadata
cidon
c601
dq
dac
dlo
dare
dave
dast
dix
d30
dari
dgi
dpa
ezx
erik
fen
fare
fakes
feng
faf
f17
gv
gg
g2
grie
gdm
giles
hj
hpt
hone
hats
hakin
haitai
iov
iagent
iabg
jh
jw
jasper
kly
kel
kiv
kob
kpm
lav
l10
lsm
lpd
lcg
mv
m1
mend
mile
mash
m12
munch
mcs
mised
mesh
mbean
nter
nft
nio
nos
nons
nax
nfl
nakash
nasser
oust
odata
pter
pere
pss
pru
pli
pik
pink
pbs
pocket
qs
qx
qry
qos
ry
r9
rpt
rash
rms
rick
r15
rhn
rosen
rrs
rapport
sso
sister
scept
sits
sbl
sizz
ters
tapped
tapping
tipped
tdt
udf
uconn
vu
vid
vmd
vmm
vwar
vii
wf
wce
wend
wos
wart
wishing
wcs
wicket
xa
x7
xar
xuan
xiang
xutils
yz
yun
yam
ynet
yuan
z2
zpp
zations
zum
zak
zope
ит
кри
нов
си
في
##oap
##sight
##sby
##tb
##tate
##tex
##mac
##mle
##mare
##mary
##mey
##member
##aec
##aut
##aib
##a25
##a41
##a90
##a70
##eec
##ely
##eagle
##rus
##r32
##cmp
##cce
##cde
##c00
##c27
##c35
##c37
##cute
##cby
##cdc
##834
##8ba
##uer
##uhr
##uador
##lac
##l02
##laser
##n1
##nom
##nate
##nite
##hairs
##bas
##bend
##b28
##bdb
##b29
##b40
##buf
##b3c
##bridge
##bunny
##b108
##bypass
##jar
##jri
##jah
##jnik
##jamin
##fin
##fec
##fab
##fam
##fang
##flex
##f76
##f9e
##famous
##vh
##vq
##vet
##vity
##vwr
##yin
##yen
##yos
##ysoft
##615
##684
##9y
##9x
##920
##947
##112
##187
##1a0
##dab
##dot
##d15
##d60
##d95
##d48
##d05
##d83
##d9b
##iere
##gn
##gang
##xw
##x32
##kty
##2h
##210
##2shopp
##0h
##040
##pz
##pod
##pie
##punk
##puls
##powers
##pulse
##4l
##zad
##zel
##wt
##wz
##wil
##witter
##wrote
##wonk
##qw
##qiao
##сл
##тическ
##ез
##кту
##سي
##ﬁng
##ля
##рет
##уг
##ᅧᆨ
##ᆼᄀ
##ᅦᄅ
##ᅩᆼᄀ
##ᅥᆼ
##±¸
##erere
thoper
thief
thamar
thrown
##inser
##inking
##inissen
##onetic
##atu
##atel
##atable
##atibility
##eding
##oro
##orum
inot
##enity
##enamed
##enabler
##itim
##ares
##aric
##arse
anf
anon
anls
anna
##ecord
##ecrt
##ecnic
##ecoop
##ecatalog
##alu
##alle
##alto
##album
toll
##icating
##anod
##rocs
##ropper
##ilo
##ilen
##ilation
##israel
anderson
##enth
##entimes
##ac8
##ac0
##acik
coop
colom
cooke
cozer
##asys
##stop
##stealer
##lem
##lev
##mpet
##utic
##lov
##lod
##ective
##ulin
##ulum
reapp
reactive
2033
2026
##uries
##acket
##ab8
##abouts
iscripts
isvalid
##unet
##unition
##unknown
##iget
ater
atyp
##othy
##amt
##amas
onload
onsl
orph
orcakiller
##riage
##advisor
##essa
stal
stir
stif
st13
stinissen
##irm
##irts
##idable
##idemic
as10
as29
asrt
##ifi
##iful
##ptable
als
alire
alcat
alfa
alumn
albert
##agged
##emgr
wei
weber
weedon
##imap
##images
##imax
unh
unal
unass
unex
unpar
unlink
unchec
unclaimed
unansw
unobfuscated
otr
##ce6
##cex
##ayy
##ayev
filings
fills
##ppo
##ppert
complied
composition
composing
composite
adst
adams
adwind
adpu
enet
enqu
contabo
##ocode
##dep
##dexec
##andum
malvert
##estate
##estream
sps
spur
spher
spdy
cht
chim
chero
moker
deh
dept
depr
degrade
deutsche
commenced
servant
servlets
syst
##iche
shal
rescue
cauth
cauch
##earm
##ereport
expend
exponent
webmin
webline
webcalendar
weblinks
webnav
actu
fileupload
crt
crux
appusage
secures
##quet
##ssec
sci
scrolling
datal
datagrams
##alla
parcel
paradig
systemtime
lobby
interbank
##ryoshka
netuser
netiq
informative
accent
##splus
phill
phased
phorum
hasty
incar
incur
incap
##illed
saker
005
0010
0013
0025
0087
0021
0072
0091
neat
neiman
data1
##umen
##llib
leo
lea
leases
leaf
levi
obm
##rule
upguard
##iprv
##ipei
##workstation
##ordomo
##udini
##udalu
1028
1020
1027
1089
1071
##achnop
emv
emerson
emulators
##ughter
repo
insta
goings
##ressbuffer
arrow
arrows
arachnop
windowsupdata
ababil
abend
abbot
idios
imperva
mansion
groupings
detention
##apy
##apec
basenamed
cyberpunk
funder
regedit
hood
hoax
houdini
overwrote
##output
scriptlet
##iano
rela
relational
##ubsc
strate
one2shopp
##echant
##ardprv
backbend
##oka
1112
1120
1140
1121
1131
1168
1156
##ryptfs
eva
evac
evades
evasive
ifelse
specied
prt
denounced
##00n
heists
heels
heats
heping
victimology
##grapher
remit
remoting
##ysinfo
perme
keyvan
invari
outb
outwe
outliers
outsid
logically
logistical
newark
creations
identically
##integr
technol
##ounded
orgs
##opas
liang
preboot
preloading
preamble
ip4
ip2b
assam
assists
##usscan
messengers
definite
payday
infusion
infuhr
##ashop
setfile
setwindows
1214
1248
1274
1249
12401
httpdo
httpchannel
httpdocs
pubconv
quarian
thanked
exe2
##servr
cloning
communi
callers
multiling
multithread
modx
modrdn
internetopen
internetreadfile
organic
thereafter
workgroup
typeconfig
##words
advnet
advancing
delve
protopas
subt
subgroup
subgroups
downloadex
downloadfile
##itespace
##ratives
multiply
multiplayer
communica
extrem
prevenity
flair
openprocess
openbsd
devscripts
metal
governed
0xee
0x25
0x35
0x67
0x77
0xbe
0x47
0x38
0x79
0x83
0x46
0x57
0x58
0x200
getversion
numbering
acme
depot
##full
##oblog
##obbe
formby
formidable
crosshairs
generically
im007
imazing
frms
loadrunner
memset
sims
simgear
simurgh
1700
1777
1770
1746
urban
urilen
customs
customised
mekin
mejri
googled
pepper
retreat
retribution
laugh
laura
programfiles
1511
maria
marqu
vern
verge
1336
1357
18h
1870
##ouk
##ouched
varieties
demigu
demarre
issymbol
1498
1484
1448
1671
1604
redist
redlock
redeploy
infrastruc
succession
successive
pathways
##letion
##letters
##icken
20150
19th
1987
1984
1968
1972
amass
macdownloader
sentences
siesta
storages
##644
smg
smser
winst
winner
winview
apa
apol
virusscan
figured
##ee7
osver
indeo
ms14
ms09
mscfg32
bla
bliz
blaming
##encil
sensing
sensational
259
cloppert
irony
irrespect
transforms
discern
mazer
distros
##109
##1065
warsh
whereabouts
elif
realization
2420
2416
2417
2426
2436
2404
kernelinjector
tera
terrain
##cons
utm
utmost
waypoint
clientcert
charles
medsec
sourceforge
empir
underworld
2240
2207
mailserver
mailchannel
mailinator
csw
##12345
carne
centos
patchguard
pointless
headline
##sha
##short
##shire
insulin
duamlive
localstorage
daylight
2114
2130
2117
banechant
3060
3059
3058
freeing
freeware
freeuae
statue
statistic
namedpipe
potato
beliefs
believable
324
3200
findnext
279
272
2729
brevity
2383
www2
##pointer
militant
militarily
attributory
0189
0137
0198
0136
0194
thirds
##ironment
##iskgo
073
0700
edr
edih
edirectory
revention
revised
2870
integrates
createdirectory
0201
0249
0262
0204
0209
0311
0392
##exa
##execut
##arked
##arkup
##dfa
##df5
##df7
##df3c
newsletters
greeted
044
0497
0418
0402
3396
##286
##2810
changer
embedi
embedlinux
purple
changeip
incremented
untrained
untouched
dnsd
##ijklm
0617
0626
authorised
grave
safenet
safemode
helpers
helpasync
knowingly
sway
swarm
##ikh
##142
##147
##manworkstation
cloudforms
cloudbleed
majordomo
##1312
joke
agentx
sizeable
marcher
##206
##2010
##2015
##2017
blackbox
455
457
4505
4591
artific
##d58
conviction
0587
0563
populates
testers
440
langner
0008
0003
0004
##lexp
##ertase
3527
3524
##309
intrusive
sysctl
salv
randomp
##80a
##1627
eventvwr
4093
projection
##19b
##195
##193
myapp
myrt
myftp
myaccount
pleased
firmly
privateering
shortest
diskless
thoughts
virusmap
virusbuster
##aho
##171
ccdc
0926
skipper
##257
pasting
343
340
3435
extractor
quickup
##354
appendchild
cyberscoop
refrain
virtualised
mechanical
trusting
posit
posited
##azz
boon
simpli
ensuing
selref
hpmy
ntl
coregraphics
##eshift
standardized
eurostar
belgrade
rcdata
##901
##reply
preventative
moto
etex
##97e
##978
##975
ross
lowing
slated
policykit
displayname
decoda
mcu
mcupdate
consistencies
8075
xmlpath
step2
##18n
##iodriver
555
propensity
##alties
volatility
##booksp
##99b
##993
harry
harris
sslmm
bankbot
callout
sessionid
##261
##984
rtti
cmdline
cmdshell
svohost
##652
##654
##bsctrl
603
csctl
csctk
futex
4369
##96e
##naire
hava
havalite
##458
##457
##ammers
keepal
clustering
##ranto
expressing
ecuador
ecryptfs
appsecnic
##guire
optimal
##desktop
littjo
tmpprovider
doubts
doubled
dropzone
##366
crowbar
defendants
42aed
moviest
torque
careers
storagefile
storageworks
##556
##listener
diﬃc
diverted
colored
broadcasts
emerges
anonymizing
sitel
seamlessly
shaded
criminality
41fd
7424
##93b0
unschedul
eleg
comeback
loopholes
ivr
allege
##02d
staffing
dw20
dwpkttype
raided
raids
704
ceos
ceived
ceuk
kindlund
precl
##fcj1
sr13
israelis
selections
63kb
bench
benjamin
keylogs
mutation
##669
ctlm
##ntype
##vcfs
openswan
masses
##39b
recommending
fallible
holden
##dddd
sheikh
area2
maxthon
setsockopt
sixth
doubleagent
doublepuls
matryoshka
falsehood
questionnaire
barack
barcl
baratov
##62c
enhanc
livejournal
keith
keaid
ieenabler
transports
edituser
illustrator
pscp
thinkers
modeled
opportunistically
ideologies
##cf7
##buzz
##values
##aa8
predicates
gmremote
radiation
radius
contracting
widening
spammed
transmitter
blueprint
fpupdate
##hnwil
booking
cdi
icu
breakpoint
breakpoints
tunneled
##a4c
deepest
professionalism
cmdexec
meaningless
binders
epidemic
0c966
dialing
##crate
budd
budminer
##auk
transporting
vb2014
circumstance
societal
batches
frequented
oci
qualcomm
incorporation
lockout
pinyin
handshakes
ssd
ssdt
100029
100021
equationlaser
synonym
synxis
queen
approximate
##b7ef
resetting
##marker
tomato
participant
debt
##interpr
consultation
keyboards
##diag
remedial
extrad
nga
0x5e
0x5f
lanmanworkstation
##fd8
modularized
##rece
##recv
dhl
nightmare
knf
natively
pooraim
narratives
##d0a
squad
sounding
quoting
##fb0
netwitness®
c7c
##moud
##urlsa
deadly
duped
fuze
fueled
fuqing
##comed
apartment
karae
karmen
##defgh
wikka
evilbunny
##ca8
hopkins
exhibiting
exhibitors
##cb4
##base64
uninstaller
peterson
balancer
readystate
fingerprinted
exec2str
burns
gazeta
##initialize
nicknamed
##winds
##alyzer
c0w
semmle
##a7f
1h1
bidder
alteration
alterbooksp
libero
cashcrate
olejnik
##delib
##asonable
publishes
0603
0602
0xffff
3beta
kaza
ovh
ovwebs
##9a5
feared
issuemakers
wmiprv
##rootkit
hypothet
procmon
welcomed
##fram
##frames
chopshop
signaling
minimized
awd
awertase
directional
quantization
miles
##f2a
##f2c
##f2f
censor
##a6e
pad62
##f4a
surroundings
fitz
##carobbe
beta1
cast128
##b8e
partnering
bdagent
progressive
##rupted
minimalistic
redicting
dti
biases
biased
bcm
bcrypt
asymmetry
dsntype
##d1bd
decreasing
##d6c
boyd
s7tg
##b934
manifests
0x2c
lawsuit
5122
orientation
birthday
wishbone
##glass
wondering
taipei
##https
alexei
fifa
signer
##b2b
yankee
borne
nano
nfsv4
bgpd
bgcolor
securecrt
netezza
##encryptednetwork
2128
##e8b
unreasonable
mahanserver
mahmoud
conveniently
e4004
##c1f
##chester
emirati
winsvcfs
turbines
optimized
promotional
rhcs
altitude
4173
4171
4172
stockp
scalable
scalance
intermediaries
##tracker
melamed
rfcomm
savings
sanitizer
murky
nuanced
delegitim
venus
tweetsfb
advocated
synchronizer
canceled
concurrency
memberships
disseminate
adjustments
nyc
entrance
rankings
disassembled
disassembling
norton360
2325
blowout
hsr
ptm
##1c04
##xxxxxxxxxxxxxxxx
vfses
wangz
loses
swekey
t3fcj1
zwquery
##environment
ispsystem
##adius
roadmap
##скои
converters
predominant
##protectdata
korhigh
speeches
mingw
renting
wilcarobbe
inetnum
strangely
prosecution
cubecart
kwi
levied
cripples
tripwire
gbps
mccoy
strikingly
l2cap
##racuse
##utorun
1025308
corroborates
0x7a
0x7f
024094
substantive
4250
rerout
rererere
gradually
cambio
gdip
slots
uxss
##ина
activemime
transforming
4163
##model
##modified
animals
##acenter
##openrequest
mobilization
encapsulation
0x406
ridiculous
tesla
voter
excessively
shenzhen
bleepingcomputer
bombed
mikko
vaeit
##etails
unconvention
sheds
encompasses
pupov
settled
blackhatworld
misconfiguration
misconfigurations
mohamed
incredible
gopher
evidently
peculiarly
##elaire
downexec
misspell
dharma
falsify
hinders
relocations
##oconf
chipsets
cruft
evtx
deserialized
imitated
rampant
sqmapi
cooltype
scsimap
##icketmgr
##controlled
servicemainex
nicely
tkacik
пров
прог
religion
0x00000000
solarwinds
showcasing
ctl00
obligation
mismatched
oem6c
incrementally
darren
recompile
##zzzzzzzz
##vwxyz
lexmark
fronts
ccproject
veteran
wlan
wlbsctrl
##volume
memorandum
xmlhttprequests
csext
fantasy
r410
##nopqrstu
annotated
enlistment
constitutional
hallmarks
katello
larry
odessa
rifle
coffee
whmcs
compartment
seventy
0097b108
abbas
correction
consolidation
destabilization
segregated
duojeen
mercenaries
украі
otfkty
sezs
prestashop
teenager
teenagers
flattening
simmons
ammunition
waterholes
xxxxxxxxxxxxxxx
tmemc
aerona
aeroconf
nccic
sacrif
contingencies
champion
sherstobit
advancements
refugee
passthru
gaoqiao
m2soft
margar
##рукту
inevitable
unlocked
incompet
smuggle
smuggling
warrior
reconfigure
unintentional
honeypots
hunted
ospf
rafael
##vkproc
##debugger
spellchecker
##oslav
ntuninstallkb
##computername
fruitful
recycling
barely
liaison
mavro
nakedsecurity
vlan
vediodriver
zimb
scadapro
detonation
detainees
##graduate
getmodulehandle
auktion
dstrlog
xifudalu
sugar
trafﬁc
##ормац
5862
cxf
custody
ehp2
wxbitcoin
syscall
exponential
strangers
outfits
tweak
surmised
counterfeit
hibernate
pseudonymous
mfc71enu
bargaining
697856
cptp
romeo
residual
expedite
poetranto
repackaged
mondial
absorbed
synthes
venomous
buckshot
printhood
enthusiasts
fslapi
nasty
nixdorf
xtra
##ttpd
##haveexit
fledged
sysbin01
novoross
e0101l02
inheritance
hazard
ritsoper
sincere
xplatform
##ufferlength
##hobia
##housecoop
cousin
ussr
adobearm
sporadic
moskowsky
disease
clayton
beckham
certiﬁcate
sysadmins
tomatocms
fuzzing
geopolitics
nikolay
hibp
hudson
meyers
sureserver
wandera
##hookex
toshiba
##olitan
unverified
seagate
interoperability
##spicuous
ameteks
greedywonk
##feabec1
##interceptor
pricewaterhousecoop
kurdish
киберуг
bryan
bencs
ddbufferlength
danyuan
hccutils
huffington
iomart
lulz
sengoku
крым
паро
секрет
##russia
##nmpsrv
##7d2d0
theguardian
ingred
inoperable
coaching
cohesive
reworked
bexif
wholly
unfolded
leyden
grobman
phpsessid
phpkobo
controlset001
defibrill
clayslide
avahi
metropolitan
##webcache
lampado
msacm32
writeprocessmemory
telefonica
colloquial
mysqldumper
physicaldrive0
##pluggableprotocol
0123456789
mediacast
retrospective
dloh
dixon
darien
ezxsoft
hpticketmgr
hakin9
klyh
kpmg
nftc
nakashima
pteranod
tdtess
anlsvkproc
atypical
onslaught
orphan
as10297
as29182
alireza
alcatel
alumni
unanswered
adpu160
malvertizing
cherokee
deprec
cauthon
caucho
webnavigator
paradigm
arachnophobia
abbott
idiosync
one2shoppee
hepingqu
invariably
outweigh
outsiders
##integrity
setwindowshookex
httpdoinstruction
multilingual
downloadexcute
mekinac
demiguise
irrespective
mazerunner
warships
carnegie
freeuae2012
##ijklmnopqrstu
helpasyncpluggableprotocol
randompath
littjohnwil
42aedc87
diﬃcult
unscheduled
ceukelaire
ctlmon
doublepulsar
keaidestone
ieenablercby
0c966feabec1
##defghijklmnopqrstu
3beta20
ovwebsnmpsrv
s7tgtopx
e4004c1f
unconventional
ccprojectmgr
sherstobitoff
ritsoperrol
pricewaterhousecoopers
киберугро
pteranodon
littjohnwilhap
##defghijklmnopqrstuvwxyz
0a2
0patch
1m
3p1
3pla
587
522
584
548
592
611
695
6pm
6eded
780
734
789
736
775
7a2
898
845
849
922
966
aber
aird
a10
astr
a34
a29
a44
auf
a52
a58
akin
aerial
ariz
bso
bore
bld
bdb
bsm
bilities
bssh
baker
cus
cations
cites
cimp
ctools
cwd
dso
dows
dome
daw
dsc
ddex
eil
eject
epl
esh
eprocess
eclip
eperformance
fic
fad
fts
fsa
fdp
fsm
fait
fffff
ferr
fuck
g5
gq
gur
gard
gnc
gcat
gsec
g4h
gumi
hul
hus
hail
hup
hives
homing
hided
hcr
hips
hd2
hf2
heck
hd1
hague
hci
hactiv
hflag
iq
ien
iac
ias
ire
i64
iep
iwatch
icalendar
jqu
jos
jart
jms
jden
jokes
jdbc
jripbot
k5
kess
kup
kli
kath
kored
kbd
kssl
kicked
ka3
kida
lands
ldp
lpth
lbd
lng
luster
lags
lapse
mri
mell
mote
mise
mwr
meck
mguard
mvd
mremote
nes
nro
nent
nut
nad
nws
nib
nust
nour
ntr
nsc
nasc
nmm
nda
nprot
nasa
nipr
o2
oes
oled
oletools
pj
pry
punch
p14
pitch
pension
picking
plots
qo
qat
qinet
qnb
qubes
rust
rtr
rost
r12
rox
rdf
r28
ront
rmd
rbot
raster
racing
rlc
rmb
sary
sher
sail
sli
t4
tis
tay
tors
tiers
tipping
tioc
tribe
uu
u3
ull
uvc
udom
udi
vn
vg
vas
vcl
v14
vcs
v13
v17
vwr
v24
vsphere
wts
wso
woo
waging
wnd
wfp
xk
xer
xing
xff
xee
xamp
xdata
yy
yd
ying
yle
yue
yml
yous
yaws
yhc
zl
zf
zel
zay
zzz
zimp
глав
ист
пл
пер
фз
ﬁlen
ﻋﻠ
##oe
##o1
##oam
##oder
##oeu
##sen
##sup
##sink
##ssein
##tation
##together
##mz
##mult
##mans
##mese
##making
##maps
##maker
##aux
##a40
##a75
##a54
##a78
##a07
##a08
##a9e
##eong
##e97
##e98
##ebb
##r3
##r6
##rap
##rays
##rstr
##ranet
##rasies
##city
##c28
##cd5
##c17
##cdb
##crow
##clear
##c70
##c78
##815
##823
##u2
##uud
##uates
##lf
##lg
##l2
##lor
##lit
##lash
##nai
##niews
##hz
##had
##hail
##hill
##hos
##hge
##hink
##hmi
##hdi
##bk
##but
##b11
##bd5
##b27
##b97
##bench
##brows
##jm
##jr
##jir
##jsobject
##fy
##fcc
##fake
##flows
##feng
##fdf
##f14
##f30
##f90
##frow
##fbc
##f71
##falls
##fjx
##vx
##vich
##visions
##voz
##vkk
##570
##5bb
##3g
##389
##367
##3f6
##3e9
##616
##619
##6e2
##dac
##dde
##droid
##ddc
##dicts
##iand
##i32
##ienced
##iatory
##gf
##g2
##gar
##gist
##gproc
##geek
##guchi
##xor
##xam
##x64
##xley
##kos
##2ad
##213
##2nite
##079
##712
##7fc
##p5
##pict
##pair
##429
##4sy
##zov
##zhev
##zigate
##wg
##w2
##wich
##will
##who
##wigo
##q4
##qaha
##ري
##ام
##اب
##ся
##то
##еи
##мы
##мическ
##іі
##оп
##вл
##вет
##дат
##ﬁed
##ᅡᆨ
##жа
##이
##˙˙
##ᅮᆫ
##ני
##eray
##erpc
##erium
thaw
thet
theatre
##in7
##inarily
##inished
##once
##atec
##atim
##attering
##edom
##esktop
##escript
inb
inks
inexp
inﬁltr
##enzo
##ito
##iti
##itivity
##itiveness
anger
##ecru
##ecod
##ecmd
##ecei
##econtrol
##alia
todoo
##iculum
##anim
##aney
##anna
##rouded
##rock
##rounded
##roperty
##ilot
##illover
##isal
##isible
androrat
##enting
##entia
##acl
##ac4
##ett
##etable
cols
cock
codelib
##asure
##asian
##aska
##asoft
##asrt
##reated
##reference
##reedom
##ersetup
##veod
##staking
##static
##leasing
##mph
##mplayer
##utch
##utnik
##ectors
##ulmates
usp
reﬂ
rear
reun
reap
reinst
reuses
beat
bean
bezigate
2028
2029
2040
2044
2045
2070
2031
2046
2043
##urst
##urances
condu
conhost
##abab
##abind
##ab54
##ababa
##abyte
##abjit
isr
isdebugger
##unit
##unal
##unregisterserver
##universe
##igon
##igently
exiting
exert
ato
atroc
##usa
##userex
##usnem
##verb
##verify
onboard
ondisk
foresh
forging
ort
orin
##adns
##essenger
##essentials
stg
stony
stuck
sthg
whitespace
##ainformation
##elnet
##election
##elight
attitude
asf
asat
as23
as48
as1312
as1627
proliant
proservr
##ifest
##ptun
alber
alice
alamos
##agency
##agnetic
##olt
##ol2
##emor
##emola
serg
serp
##tscan
##imo
##imented
##omy
##omination
##omosti
unil
uname
unqu
unob
unprof
unmodified
uncontrolled
##chi
##chant
##ce5
combo
comics
comings
comedy
##ayrak
compel
compelled
composer
ado
adb
admission
adrian
adhosting
##rome
##romagnetic
ence
endo
contested
contenders
##wski
##mentioned
##ocial
##dee
##de8
##de6
##de7
##deha
##deutsche
##isti
##sek
mall
malta
malwar
malspam
itanium
sp5
spare
sparks
sporting
speller
spatial
spillover
sputnik
beforehand
chy
chase
chath
chf1
chroot
chern
moss
suits
vuln
##perienced
dele
##cc3
##cc1
##cc0
commcgi
commande
commemor
sydn
syracuse
##icheng
##ichtml
##sody
shabg
shrouded
res2
resell
resorted
resili
##avekey
cautions
cairo
exporter
webhttps
activer
fileinfo
##ivite
##ivious
appid
applicate
apphp
tr4
trac
##quiz
##ssr
intents
haveib
scand
scum
scra
##inds
##inda
sein
seat
severs
dats
datacenter
poured
popping
##alled
parav
sojax
loxx
loxley
interq
interrel
netz
netinvoice
##dupd
accustom
##spice
##spath
##spacing
phising
##upg
##uple
incite
adduser
addport
saas
004
0086
0088
0018
0094
0031
##iza
##izens
neptun
##ibrary
data2
datajunction
##ighter
##uma
##uman
##umuud
##llnk
lei
lean
leven
servername
upset
userauth
userlogin
useradm
##udong
1060
1088
1029
1099
1022
1085
##thur
windysoft
emman
##ughtered
repet
repairs
replicated
replicates
repaired
pled
plate
plink
pluto
doug
gob
gost
goah
govc
gokb
aris
arts
grotate
##astart
windowsupdat
abr
abrt
aboard
reck
exploitations
idation
manoeu
detours
##angelist
##ako
##apor
##apagent
filesend
cyberm
cybertech
cyberoam
funny
regained
timothy
hossein
theirs
overtime
##iana
##ishop
relatives
##ubh
##ubscript
strait
strcat
##uee
##echt
##echild
##avi
all4sy
pride
lincol
backs
backwards
##okr
1114
1197
1165
1138
1182
1103
1179
1183
microprocessor
microsystems
directplay
##ificates
evm
evince
evangelist
speculates
##osan
threatens
threatintelligence
pronged
indices
indoct
##tpenh
denis
deniable
denomin
denomination
##006
##00d
hebe
remy
##yslog
peru
pern
perrig
keyhelp
##mplemented
inviting
invision
invades
invasive
outing
outset
logics
requisite
2013011
dllunregisterserver
##ourne
techno
provoc
proventia
howitz
##opa
liudoor
prefs
##ypso
ipl
iplogger
assoc
downs
downed
downplay
siteadmin
site2nite
messy
noble
payable
##ashed
##ashfs
differentiates
updt
1264
1210
1216
1217
1250
1218
1245
1247
1255
1293
1254
1262
1252
1206
httpopenrequest
quake
quently
quasi
configu
installerex
encl
encrstr
clips
clwarn
calltogether
##ponse
aptly
apt16
multis
multid
modi
modiﬁc
internetset
avic
avaya
avm2
chinch
chinanet
passkey
privat
therein
workbook
##32a
##327
russell
adv138
delaware
protec
protracted
##ffh
readnotify
adminstudio
subj
subfunction
subleasing
softbank
##ductory
mont
monten
monju
signifying
multiplied
organizers
ourmine
trol
##prs
##printer
operationally
openconnect
devspy
devpct
droit
metaph
metering
##vername
##vernmental
governor
0x27
0x50
0x33
0xae
0x36
0x82
0x69
0x42
0x0001
0x9c
0x3e
0xbab
geted
getmail
getcomp
getnn
getaddr
getlocal
contention
persists
##obj
##obile
linkage
stext
steep
updateoffice
curriculum
generous
imd
imadmin
framing
framed
##iquated
finns
finfly
consume
##lieri
beta2
##ldecomp
indica
suppression
publickey
wrt
simulate
simulates
simulator
##unders
wellpoint
1760
1789
1771
1774
1772
urn
customary
mea
mev
mei
mehdi
googlet
retr
retwe
retained
##onda
laur
1528
1537
1523
1598
1522
1571
1539
1505
1578
freert
postmessage
postgraduate
maradns
veracity
verdict
vermont
verifiable
verdicts
1332
1335
1389
1338
1394
1303
1304
1309
1888
1854
1803
1872
1842
administrate
14h
1480
1495
1447
1463
1475
1471
14c04
16t
1600
1616
1667
##phyu
redact
creds
credprov
##empt
oracles
yearly
pathank
##lett
##leton
20150219
1923
1963
1948
1971
1951
1946
1957
macfe
sierra
samplepower
ukren
visas
investi
beings
currenthal
##649
##64a2
smc
countdown
winshell
winforms
winhttp
port2
ape
minme
capac
##ee9
##ee68
osbor
msattack
msv2
blad
blake
blunt
blizz
sensitivity
longev
2587
2526
2596
2531
2556
2581
clothing
cloquet
irrespons
transient
transitions
discounts
discret
mao
maxt
maurer
##1028
##10746
machete
warhead
antiquated
elina
##plane
productid
productive
realised
realpage
##tron
##tray
##trend
##15a
adobeins
powder
poweli
2428
2488
2427
2435
2467
2433
2409
2408
efront
libclamav
ered
eral
restricts
##saz
viewable
empower
endang
endorse
autov
earn
226
2264
2214
2213
2223
2272
nameserver
applicationlog
carriage
carleton
##extract
sp22
easerver
headache
drafts
##shel
insensitive
duct
designate
##lowship
accountability
2110
2115
2111
2116
2135
2134
2140
2193
2181
banning
helsink
307
3041
3026
uploadfile
sharethis
freezes
digisign
attache
325
326
3214
##clause
deviceid
findclass
273
2761
2705
2772
2300
2380
2384
2305
2307
23869
wwwhost
bugzilla
buggy
##aspi32
checkpoint
guo
guan
guise
01a
01b
0111
0160
0183
##anca
##eader
##enge
##cpu
##cpes
0756
0773
0706
edimax
revoking
28a
288
282
2853
integrating
integrator
tempted
paused
##1111
receivers
023
027
02pl
0228
0230
0216
0217
0226
0202
0203
0246
classifies
classroom
classiﬁed
0364
0315
0378
0306
compiles
##explorer
base36
501
504
5065
5061
5092
facto
##oooo
##df2
controllable
##scada
flashplayer
0412
0419
0425
0426
0453
3306
##2812
persisting
changeconfig
justified
formatter
##ijie
authoring
2960
gren
grun
gram
grange
safaric
helpbox
swig
swim
swcs
swapped
640
64kb
launcht
##manifest
cloudie
junos
buildid
##essional
surger
surrounded
##gea
noncomp
nonstand
sophis
##1388
nowhere
suspension
agentes
agentbase
##205
blackpos
4555
artforms
tcprelay
bytewise
experimented
internic
proxydns
0599
0598
0596
44000
4463
44c1
2660
2009a
2009b
00019
seeming
##868
##86f
##ertz
3510
3515
3560
3533
3522
##3015
##3021
sysmon
sysdba
airways
trending
sality
obfuscations
##80c
##806
##163
##16ef
##1626
407
4086
4085
4084
utilise
utilization
utilised
##192
shareholders
mygov
cryptor
crypting
crypters
effected
octet
financials
##ahin
##179
##889
ccitt
ccrootkit
##mdata
0920
0927
0950
0906
3484
3492
##2727
quickr
singled
##357
collectivite
##db5
refine
refined
refrained
368
3615
##896
##892
##azon
industrywide
2007a
##508
##501
##5049
electromagnetic
whiteatlas
ntt
ntwebserver
xpdf
farms
farfli
farrell
farsight
376
3736
##41e
##371
31st
darknet
darkuniverse
##efreedom
belani
driveletter
##24b
##24f
##240
##247
##setup
##670
4787
ddl
cardholder
0821
cpllnk
##409
diffusion
appendixes
etrust
##971
##97aef
roi
slp
slammer
##ba3
##ba4
##baad
placeholders
weekends
videospir
mcf
mcguire
805
xmlparse
separator
hackerone
1005
ffe4
ff5a7
base64encode
##18c
559
557
5521
##ae1
##ae0
##bookmark
##238
##23b
algorithmic
##448
sslv2
banknotes
calypso
##robot
daughter
##26e
##266
practiced
rtfs
rtldecomp
##dataoffset
##ysteminformation
6585
magnet
magics
maglieri
palace
compressing
csctb
##backs
condence
humour
##961
##dsk
piwigo
##771
##772
##851
##8561
##beb
##be0
##beaf
##behav
televisions
dbd
ecm
ecava
##response
##849
playboy
playoffs
titanium
advertises
scriptsfeed
##36f
##36890
##470
##474
##47242
printf
##neft
torn
submitter
authorship
##553
instantiates
circular
sedebug
hyatt
colleg
invalidate
invalidating
##38ff
broadened
deterministic
emergent
##ofbytes
5230
ruhappy
wanton
mises
misapor
marketers
4164
nearest
pcsc
##93d
##943
adapts
adaptable
safebrows
##758
##757
##75fa0
goodwill
sidebar
stopfake
ivan
blackenergy3
schemas
dwind
dwunknown
dwdataoffset
booting
hitler
706
7010
uncle
uncondition
##smap
##smart
##71d5
visualizes
##31f
srt
srl
sr1
sr4
ssh2
penalties
penchant
selector
organisational
illusion
##dcb
##dc26
##dc97aef
##bb5
##bbd
acquires
opensc
federations
jp1
costing
##543
##542
##0316
58313
weakly
##769
trueonline
startupinfo
ax25
area1
silly
scrapers
matured
matros
smartassemb
smartwatch
manipulates
voices
voiced
dropshot
##49f
##instanti
5900
ie7
iehard
termite
##78e
streamlined
streamnation
##brute
##52f
##09c4
##heil
##heet
layton
pngr
##51d
liferay
mr9
westerners
americas
chrony
##operation
preparers
preparatory
competitiveness
superuser
superintend
superpowers
landed
interceptor
##07vkk
appropriated
challenged
civic
trains
##htar
lighting
converge
blueberry
glpi
ldasm
##hnn
sofia
announces
robin
breakthrough
sena
senator
##da2
profiler
hearts
hearings
##zzfre
solutionary
holistically
##ctlcm
educating
msglu
5002
500ms
50035
sleept
zhm
zhong
zhudong
setups
##decision
suspecting
measuresoft
015b5f
cmarkup
dcerpc
btecache
ep3
epolicy
wedding
##holding
briefed
##webshop
trials
alphanumeric
autoapec
wiring
stripe
vbilling
tenure
segura
wp07vkk
beneficial
reloads
aspxspy
diving
divisible
decompressing
rdpage
spots
0fbh
exitmap
declass
declining
materialized
pinning
sslove
answering
bsi
syntpenh
wallpaper
##rc3
##rc2
##bd7
##breaks
##secure
##api32
##kiy
debates
##b516ef
extraneous
extrapol
float
flour
pcccmd
evaldas
cryptographer
omit
tabulator
tabatad
auditd
0x10000
movieplayer
austin
iterating
16864
##method
cvp
0x004
jarno
chatting
homs
homed
exercising
##activex
slower
slowdown
squat
subsided
quotas
##egro
conversely
##complete
c747
##nya
fuelled
fuqaha
tgctlcm
##comment
##comments
instructional
containerv2
nbill
wikis
##c0255
##3a8
committees
hoped
fsize
mongo
simplify
exhibitions
cells
coldjava
kyauk
##f5cf
##davi
##roller
interfacing
baleno
sorting
fc1
vsnet
rsgallery
edgewave
wsastart
burmese
aaop
cascades
queueing
##a7a
merkel
merrig
mbrs
liberties
pirq
hacktivism
diversify
ole64
travelers
##queror
0604
##c4d
imagined
succeeding
behaviours
hyperbro
hyperlinks
paccrypt
interviewe
0x0b
khlp
##rentals
##armament
mansouri
procuring
unrelenting
insertions
gpokr
##frag
##9e1
msnp21
minimizes
awstats
strengths
directionality
quantify
quantitative
deaths
##a610746
predicting
fitting
mtmon
mt103
vpss
optionalheader
conﬁd
progressively
critically
polytech
pkg
##devic
ministerial
##classes
0x4b
papa
1325
1326
bien
##e5f
pvt
pvdata
surveying
gamut
##encryption
vba32
##allocated
savandi
savmpet
bangladeshi
tanzer
flooded
zenphoto
##objectby
migrating
pulp
##структу
##ervation
shoaib
cautioned
cautionary
oriental
immig
immense
birthdays
0649
0640
0000f5
ambul
wondered
taught
xscontrol
applicants
alexa
griff
gri40
concealing
catching
etsi
crucially
judicial
plcsim
tacker
borrows
nfs4
##a589
##a537
usrclass
perceives
negotiated
##c2fb
broadcasters
unreal
youngest
servicename
bogd
winsocks
binder1
kyivpost
instrumental
dnssec
refusing
alleges
gpsvc
4175
ladine
##router
##sshim
scalability
inventive
rfc18
unfinished
subscribed
dfhge
ogy
indonesian
[...]
